<unk>	0
<s>	0
</s>	0
।	-2.98211
▁	-3.08217
को	-3.70202
ले	-4.09092
▁छ	-4.09789
▁र	-4.32843
मा	-4.47091
का	-4.63378
लाई	-4.77233
▁पनि	-4.97166
▁भएको	-5.04182
▁छन्	-5.07585
▁गरेको	-5.32766
▁भने	-5.4004
▁लागि	-5.43938
▁हो	-5.52422
▁तथा	-5.56546
▁गर्न	-5.56665
▁गर्ने	-5.58855
▁थियो	-5.70243
▁उनले	-5.74152
▁रहेको	-5.853
▁एक	-5.87128
▁हजार	-5.87243
बाट	-5.95832
▁हुने	-5.97069
▁बताए	-5.99836
▁काठमाडौं	-6.02962
▁यो	-6.04406
▁गरेका	-6.04621
▁नेपाल	-6.09676
▁गरिएको	-6.11066
▁नै	-6.14256
▁कोरोना	-6.18036
▁थिए	-6.18327
▁काम	-6.25032
▁(	-6.31289
▁गरी	-6.32275
▁भएका	-6.33049
▁तर	-6.35069
▁लाख	-6.3604
▁जानकारी	-6.36211
▁गर्दै	-6.40551
▁दुई	-6.44137
▁कारण	-6.45285
,	-6.46962
▁जना	-6.48994
▁१	-6.56136
▁नेपाली	-6.56382
▁प्रधानमन्त्री	-6.57214
▁अनुसार	-6.57255
▁अध्यक्ष	-6.5991
▁प्रदेश	-6.62587
▁सय	-6.6282
▁सरकारले	-6.62822
▁भन्ने	-6.65674
▁दिन	-6.67167
▁अहिले	-6.67741
▁जनाएको	-6.67796
▁केही	-6.68436
▁प्रहरी	-6.68482
▁हुन्	-6.6909
▁दिए	-6.71369
▁आज	-6.71648
▁स्वास्थ्य	-6.74605
▁जिल्ला	-6.7499
▁प्रमुख	-6.75254
▁२	-6.75913
▁छैन	-6.7602
▁हुन	-6.79054
▁रहेका	-6.79397
▁समेत	-6.80405
र	-6.80493
▁सबै	-6.80744
▁मृत्यु	-6.80881
▁निर्माण	-6.81545
▁वर्ष	-6.81626
▁गरे	-6.81663
▁पार्टी	-6.83218
▁आएको	-6.84925
▁गरेर	-6.87118
▁निर्णय	-6.88806
▁आफ्नो	-6.88833
पछि	-6.90379
▁"	-6.905
▁यस	-6.9054
▁हुन्छ	-6.93875
▁१०	-6.94345
▁बढी	-6.94532
▁रुपमा	-6.94733
▁तीन	-6.95563
▁करोड	-6.95965
▁नयाँ	-6.96496
े	-6.96883
▁स्थानीय	-6.97878
▁धेरै	-6.98436
▁नेता	-6.98641
कै	-6.99023
▁भन्दै	-6.99434
▁गते	-7.01313
▁उनको	-7.01409
▁समस्या	-7.01737
▁समय	-7.02491
▁३	-7.04744
▁कुनै	-7.05077
▁विभिन्न	-7.05249
▁भए	-7.05657
▁व्यवस्था	-7.06247
▁संक्रमण	-7.06382
▁विकास	-7.06787
की	-7.06905
▁थप	-7.07775
▁५	-7.07776
▁कार्यालय	-7.08439
▁मात्र	-7.0932
▁उक्त	-7.10045
▁६	-7.10169
▁त	-7.10434
▁राष्ट्रिय	-7.11091
▁सरकार	-7.11709
ी	-7.11852
▁कुरा	-7.12802
▁पहिलो	-7.13449
▁दिएको	-7.13914
▁रुपैयाँ	-7.16028
▁गर्दा	-7.16802
▁आर्थिक	-7.1761
▁मा	-7.18063
▁सदस्य	-7.18345
सँग	-7.19622
▁सो	-7.20416
▁प्रतिशत	-7.2116
▁गत	-7.2165
▁क्षेत्रमा	-7.21738
▁बताएका	-7.22791
▁सेवा	-7.22861
▁अन्य	-7.23064
▁वा	-7.23233
▁भइरहेको	-7.24149
▁जारी	-7.25176
मै	-7.26183
▁अवस्था	-7.26313
▁४	-7.26921
▁घर	-7.27609
देखि	-7.29269
▁कार्यक्रम	-7.29607
▁उनी	-7.2974
▁१९	-7.30049
▁पुगेको	-7.31402
▁अब	-7.32715
▁बैठक	-7.32757
ा	-7.3288
▁मात्रै	-7.32896
▁माग	-7.33053
▁जनाको	-7.33395
▁सञ्चालन	-7.33533
▁नेपालमा	-7.34606
ै	-7.34647
▁दिने	-7.35626
▁त्यो	-7.36373
▁प्रयोग	-7.36991
▁डा	-7.37063
▁संख्या	-7.37496
▁सडक	-7.37668
▁अघि	-7.38612
▁प्रहरीले	-7.38841
▁सार्वजनिक	-7.39021
▁क्रममा	-7.39511
▁सहयोग	-7.39576
▁पाँच	-7.39917
▁छलफल	-7.41346
▁चार	-7.41624
▁आएका	-7.42705
▁त्यस्तै	-7.4313
सँगै	-7.43228
▁पछिल्लो	-7.43719
▁अवस्थामा	-7.43945
▁विषयमा	-7.44397
▁खोप	-7.45251
▁भनाइ	-7.45652
▁केन्द्रीय	-7.45966
▁महिला	-7.45982
▁के	-7.45987
▁देखिएको	-7.46081
▁मन्त्री	-7.46337
भन्दा	-7.46649
▁नेकपा	-7.46651
▁२०	-7.4675
▁आवश्यक	-7.46824
▁१५	-7.47493
समेत	-7.47504
▁बैंक	-7.47667
▁गाउँपालिका	-7.4777
▁११	-7.48174
▁भयो	-7.49194
▁७	-7.49366
▁ओलीले	-7.49491
▁अस्पताल	-7.49877
▁पक्राउ	-7.50128
▁२४	-7.50299
▁नगरपालिका	-7.50661
▁१२	-7.51373
▁भनेर	-7.52574
स्थित	-7.5265
▁वटा	-7.52777
▁आयोजना	-7.5286
▁हामी	-7.5303
▁दिएका	-7.54855
▁राजनीतिक	-7.55344
▁उल्लेख	-7.5561
▁परेको	-7.55659
▁सुरु	-7.566
▁दोस्रो	-7.57049
▁राष्ट्रपति	-7.57232
▁स्थानमा	-7.57378
▁लागेको	-7.57433
▁भएपछि	-7.57778
▁कोभिड	-7.58468
▁गएको	-7.58838
▁८	-7.59016
▁निर्वाचन	-7.59543
▁शुरु	-7.59948
▁भएकाले	-7.60159
▁अर्ब	-7.60251
▁पटक	-7.60659
▁तयारी	-7.60954
सहित	-7.61308
▁ओली	-7.62082
▁उपचार	-7.62092
▁वर्षीय	-7.62395
▁भएर	-7.62733
▁क्षेत्र	-7.62746
▁९	-7.63149
▁प्राप्त	-7.63333
▁सामाजिक	-7.63362
▁शर्मा	-7.63526
▁पर्ने	-7.63808
▁बजेट	-7.64264
▁हुँदा	-7.64372
▁हुनेछ	-7.64381
न	-7.64541
▁उत्पादन	-7.65417
▁बनाउन	-7.65861
▁साथै	-7.65928
▁गर्नुपर्ने	-7.66614
▁परीक्षण	-7.66673
▁ठूलो	-7.67182
▁यस्तै	-7.67554
▁केपी	-7.68507
▁दल	-7.68687
▁आग्रह	-7.68693
▁नागरिक	-7.69401
▁म	-7.69415
▁केन्द्र	-7.69574
▁एउटा	-7.70151
▁हामीले	-7.7027
▁पुष्टि	-7.70372
▁आउने	-7.70435
▁रकम	-7.70737
▁संक्रमित	-7.70827
▁योजना	-7.70976
ो	-7.71172
▁सरकारको	-7.7158
▁व्यवस्थापन	-7.71675
ित	-7.71733
▁भन्दा	-7.72619
▁कम	-7.72973
▁यसअघि	-7.73335
▁रु	-7.73756
▁५०	-7.73803
▁खर्च	-7.74206
▁सम्पन्न	-7.74745
▁समयमा	-7.74843
▁सक्ने	-7.75519
▁तयार	-7.75561
▁रूपमा	-7.75746
▁गोल	-7.75812
▁देखि	-7.75946
▁प्रस्ताव	-7.75991
▁यस्तो	-7.76576
▁उद्योग	-7.76612
▁१४	-7.76625
▁बेला	-7.76663
▁अगाडि	-7.76886
▁जाने	-7.77097
▁बैठकमा	-7.7763
▁मन्त्रालयले	-7.78242
▁बन्द	-7.7827
▁नेपालको	-7.79015
▁बिहान	-7.79313
▁होइन	-7.79327
▁ती	-7.79597
▁प्रवक्ता	-7.79783
▁२५	-7.79784
सम्म	-7.79906
▁बनाउने	-7.8
▁करिब	-7.80167
▁लगानी	-7.8061
▁साथ	-7.80779
▁कार्य	-7.81453
▁हाम्रो	-7.82627
▁सन्	-7.82682
▁परेका	-7.83744
▁अनुसन्धान	-7.83833
▁१३	-7.84175
▁३०	-7.84588
▁मूल्य	-7.84683
▁वडा	-7.85193
▁खेल	-7.8535
▁अर्को	-7.85696
▁नभएको	-7.85767
लगायत	-7.85772
▁हुँदै	-7.85895
▁गरिने	-7.86377
▁खेलमा	-7.86428
▁बढेको	-7.87703
▁विश्वास	-7.88115
▁पानी	-7.88558
▁भारतीय	-7.88617
▁आगामी	-7.88691
▁हाल	-7.88727
▁दुवै	-7.88732
▁घोषणा	-7.89672
▁सुरक्षा	-7.90376
▁विशेष	-7.90502
▁सबैभन्दा	-7.9093
▁आधारमा	-7.91193
▁'	-7.9158
▁एवं	-7.91974
▁कांग्रेस	-7.92194
▁सरकारी	-7.92564
▁राम्रो	-7.92595
▁विषय	-7.92731
▁१८	-7.93072
▁बाँकी	-7.93166
▁उच्च	-7.93634
▁उपलब्ध	-7.938
हरु	-7.93967
▁पूर्व	-7.94146
▁भाइरस	-7.94161
▁१६	-7.94494
▁कृषि	-7.94565
▁गरिरहेको	-7.94726
▁कमिटी	-7.95399
▁लामो	-7.95485
▁व्यक्ति	-7.95842
▁यही	-7.95844
▁सूचना	-7.95898
▁कार्यक्रममा	-7.96282
▁अहिलेसम्म	-7.96466
▁बैठकले	-7.96624
▁जिल्लामा	-7.96788
▁देउवा	-7.969
▁माओवादी	-7.97417
▁कि	-7.98265
▁उनका	-7.98535
▁सहभागी	-7.98541
▁अस्पतालमा	-7.9906
▁उनलाई	-7.99583
▁निर्देशन	-7.99638
▁अध्ययन	-7.99676
▁दर्ता	-8.00139
▁महिना	-8.00664
▁नं	-8.00846
▁गर्नु	-8.01
▁काठमाडौँ	-8.01493
▁अन्तर्राष्ट्रिय	-8.02031
▁बस्ने	-8.02169
▁उनीहरु	-8.0229
▁नाम	-8.02664
▁एमाले	-8.02852
▁ज्यान	-8.03376
▁पैसा	-8.03496
▁भारत	-8.03585
▁न	-8.03699
▁हालसम्म	-8.03784
▁नीति	-8.03815
▁समिति	-8.0388
▁सांसद	-8.04193
▁१७	-8.0422
▁दाहाल	-8.04237
▁वितरण	-8.04389
▁अझै	-8.04408
▁लिएर	-8.05227
▁सात	-8.05503
▁सम्भावना	-8.05702
▁दाबी	-8.06032
▁बजार	-8.06094
▁राष्ट्र	-8.064
▁पूरा	-8.0642
माथि	-8.06678
▁मत	-8.07086
▁अधिकारी	-8.07293
▁नेपालले	-8.07361
बारे	-8.07424
▁निकै	-8.07521
▁वर्षको	-8.07895
▁जनामा	-8.07944
▁सर्वोच्च	-8.08618
▁संविधान	-8.09156
▁मुख्य	-8.0924
▁सभापति	-8.09557
▁यी	-8.09937
▁सोमबार	-8.10094
▁सोही	-8.10556
▁लिन	-8.11122
)	-8.11364
▁२१	-8.11605
▁बनेको	-8.11641
▁सामान्य	-8.11922
▁बताउँछन्	-8.12163
▁विवाद	-8.12546
▁गम्भीर	-8.12725
▁सचिव	-8.13279
▁देश	-8.13404
▁प्रक्रिया	-8.13464
▁यसको	-8.13576
▁असार	-8.14289
▁कायम	-8.14326
▁राति	-8.14547
▁बजे	-8.14646
▁नहुने	-8.14762
▁आरोप	-8.15453
▁बसेको	-8.15721
▁नेतृत्व	-8.15723
अनुसार	-8.1598
▁सम्झौता	-8.16333
▁व्यक्त	-8.16526
▁ध्यान	-8.1656
▁शिक्षा	-8.16746
▁वरिष्ठ	-8.17111
▁अधिकार	-8.17167
▁मुद्दा	-8.1722
▁बुधबार	-8.17494
▁कम्पनी	-8.17665
▁पर्यटन	-8.1814
▁अमेरिकी	-8.18403
▁सहमति	-8.18613
▁२२	-8.18648
▁समूह	-8.18683
▁दैनिक	-8.18763
▁घण्टामा	-8.18949
▁मैले	-8.19135
▁बताइएको	-8.19155
▁त्यसको	-8.19299
▁कसरी	-8.19327
प्रसाद	-8.19441
▁लिएको	-8.19516
▁पार्टीको	-8.20753
▁गरेपछि	-8.20813
▁मुख्यमन्त्री	-8.20943
▁आइतबार	-8.20956
▁स्थापना	-8.20998
▁सकिने	-8.21072
▁विश्व	-8.21197
▁जेठ	-8.21391
▁अन्तिम	-8.22
▁घाइते	-8.22111
▁पाउने	-8.22291
▁यहाँ	-8.22292
क	-8.22481
▁प्रतिनिधिसभा	-8.22987
▁ठाउँमा	-8.23223
मध्ये	-8.23223
▁२३	-8.23295
▁प्रशासन	-8.23327
▁पछि	-8.23356
▁मन	-8.2336
तर्फ	-8.2348
▁प्रदान	-8.23586
▁किसान	-8.23776
▁यादव	-8.23824
▁शुक्रबार	-8.23885
▁संक्रमितको	-8.23892
▁गरिरहेका	-8.24042
▁गठन	-8.24104
सम्बन्धी	-8.24168
▁त्यहाँ	-8.24268
▁सवारी	-8.24697
▁आफू	-8.24783
▁कारोबार	-8.24817
▁छैनन्	-8.25113
▁प्रचण्ड	-8.25812
▁त्यसैले	-8.25831
▁बिक्री	-8.26098
▁स्थायी	-8.26197
▁सफल	-8.26485
ीय	-8.26797
कुमार	-8.2747
▁भट्टराई	-8.27774
▁त्यसपछि	-8.27807
▁बिहीबार	-8.27944
▁विघटन	-8.28029
▁रहने	-8.28115
▁बनाएको	-8.28283
▁छौं	-8.28529
▁मन्त्रालयका	-8.28543
▁प्रवेश	-8.28623
▁आठ	-8.28703
▁कार्यान्वयन	-8.28749
▁भाइरसको	-8.28757
▁उडान	-8.2894
▁थालेको	-8.28958
▁२८	-8.29087
▁खरिद	-8.29134
▁आफ्ना	-8.29495
▁सकिन्छ	-8.29662
▁२७	-8.29692
▁श्रेष्ठले	-8.2979
▁साउन	-8.29841
▁निजी	-8.29898
▁वृद्धि	-8.29957
हरू	-8.30005
्	-8.30115
▁४०	-8.30272
▁हरेक	-8.30387
▁जित	-8.30391
▁सहज	-8.30395
▁तत्काल	-8.30426
▁छौँ	-8.31048
▁जोखिम	-8.31237
▁सङ्क्रमण	-8.31562
▁भई	-8.31692
▁परिवर्तन	-8.31783
▁पत्रकार	-8.32132
▁युवा	-8.32189
▁सकिनेछ	-8.3225
▁प्रभावित	-8.32535
▁संयुक्त	-8.32954
▁संसदीय	-8.33047
▁बिरामी	-8.33286
▁सङ्क्रमित	-8.33465
▁सम्बोधन	-8.33519
प्रति	-8.33531
▁वैशाख	-8.33665
▁भइसकेको	-8.33787
▁आफ्नै	-8.33837
▁बजारमा	-8.33864
▁टोली	-8.3401
▁क्षति	-8.34237
▁मानिस	-8.34291
▁रन	-8.34302
▁गौतम	-8.34308
▁घटना	-8.34563
▁मेरो	-8.34595
▁आन्तरिक	-8.34603
▁फागुन	-8.34637
▁समितिले	-8.34784
▁व्यापार	-8.3481
▁जिम्मेवारी	-8.34909
▁बारेमा	-8.34922
▁प्रश्न	-8.3534
▁हुँदैन	-8.35382
▁आउन	-8.3549
▁थापाले	-8.35491
▁हात	-8.35612
▁लक्ष्य	-8.35878
▁विद्यालय	-8.35998
▁नियन्त्रण	-8.36096
▁जान	-8.36145
▁गुरुङ	-8.36373
▁२६	-8.36573
▁अदालत	-8.36912
▁अंक	-8.37161
▁मंगलबार	-8.37421
▁सक्छ	-8.37549
▁फिर्ता	-8.37606
▁पुनः	-8.37709
▁जनता	-8.37899
▁बाहिर	-8.3791
▁पौडेलले	-8.38
▁थापा	-8.38397
▁निर्देशक	-8.38474
▁कर्मचारी	-8.38737
▁सम्बन्ध	-8.3887
▁नम्बर	-8.38878
▁माघ	-8.39393
▁विद्यार्थी	-8.39426
▁तेस्रो	-8.39548
▁देखिन्छ	-8.39589
▁जग्गा	-8.39652
▁असोज	-8.39747
▁शनिबार	-8.39807
▁ऐन	-8.39928
▁महाधिवेशन	-8.39947
▁चितवन	-8.39998
▁पक्षमा	-8.40294
बहादुर	-8.40319
▁भूमिका	-8.40791
▁परिवार	-8.40812
▁लिने	-8.40819
▁रासस	-8.41094
▁जोड	-8.41108
▁सामग्री	-8.41586
▁प्रदेशमा	-8.4169
▁पूर्वाधार	-8.41694
▁जस्तो	-8.41757
▁कुल	-8.42007
▁सकेको	-8.42303
▁अधिकृत	-8.42588
▁सम्बन्धित	-8.42704
▁गण्डकी	-8.42735
▁समाधान	-8.42736
▁जनताको	-8.42813
▁जीवन	-8.42978
▁कर्णाली	-8.43215
▁भारतमा	-8.43357
▁वन	-8.43409
▁शव	-8.43434
ु	-8.43441
▁गराउने	-8.4361
▁एकता	-8.44004
▁सक्रिय	-8.4407
▁त्यही	-8.44228
▁हत्या	-8.44413
▁अभियान	-8.44421
▁पुस	-8.44908
▁बताउँदै	-8.4518
▁यसले	-8.45355
▁विदेशी	-8.45448
▁किन	-8.45706
▁श्रेष्ठ	-8.45723
▁पुगेका	-8.45869
▁कम्पनीले	-8.46009
▁सरकारलाई	-8.46025
▁गराउन	-8.46092
▁देशभर	-8.46157
▁चैत	-8.46364
▁पुर्	-8.46421
बीच	-8.4644
▁६०	-8.46445
▁फेरि	-8.46549
▁घरमा	-8.46634
हरुले	-8.46701
▁नसकेको	-8.46704
▁विस्तार	-8.46911
▁राखेर	-8.47065
▁पार्टीका	-8.47424
▁संवैधानिक	-8.47496
▁बाटो	-8.47565
▁प्रतिनिधि	-8.47623
▁जनालाई	-8.47794
▁कारबाही	-8.47814
▁गर्छ	-8.4789
▁आन्दोलन	-8.48201
▁संसद	-8.48526
▁अरु	-8.48917
▁प्रयास	-8.48945
▁कम्युनिष्ट	-8.49011
▁सीमा	-8.49066
▁जुन	-8.4914
▁संघीय	-8.49152
▁सुधार	-8.49172
▁भौतिक	-8.49448
▁सञ्चालनमा	-8.49588
पनि	-8.497
▁आदेश	-8.49706
▁कति	-8.49827
▁प्रदेशका	-8.4989
▁छु	-8.50296
▁देशका	-8.50344
▁२९	-8.5101
▁असर	-8.51155
▁मन्त्रालय	-8.51258
▁लाग्ने	-8.51352
▁संस्था	-8.51532
▁भन्छन्	-8.51604
ल	-8.51754
▁स्पष्ट	-8.52157
▁भनिएको	-8.52238
▁पूर्ण	-8.52267
▁मुलुक	-8.52342
▁दिइएको	-8.52546
▁सभा	-8.5272
▁वर्षमा	-8.53015
▁यात्रा	-8.53142
▁उपचारका	-8.53235
▁कार्यालयले	-8.53274
▁मलाई	-8.53352
▁लिग	-8.53361
लगायतका	-8.53384
▁बनाएर	-8.53539
▁वातावरण	-8.53549
▁प्रभाव	-8.53661
▁प्रस्तुत	-8.53978
▁ल्याउन	-8.54001
▁पुरुष	-8.54469
▁क्षेत्रको	-8.5453
▁राख्ने	-8.54813
▁संरक्षण	-8.54943
▁पहिले	-8.54996
▁विरोध	-8.55066
▁अभाव	-8.55208
▁पोखरा	-8.55482
▁नियमित	-8.55568
▁दर	-8.55633
▁सुझाव	-8.55673
▁भवन	-8.56011
राज	-8.56243
▁गीत	-8.56363
▁नौ	-8.56466
▁फिल्म	-8.56684
▁समितिका	-8.56765
▁पहिरो	-8.56839
▁केसी	-8.56942
▁राखिएको	-8.57154
स	-8.57196
▁राई	-8.57197
▁आफूले	-8.57334
हरुलाई	-8.57468
▁लगायत	-8.57481
▁पक्ष	-8.5752
▁स्रोत	-8.57682
▁हुनु	-8.57876
▁सचिवालय	-8.58048
▁अधिवेशन	-8.58595
▁दिउँसो	-8.58853
▁त्यस	-8.58987
▁पुल	-8.59052
▁थाहा	-8.591
▁लकडाउन	-8.59136
म	-8.59154
▁वर्षीया	-8.59184
▁समितिको	-8.59202
▁फरक	-8.59472
▁विद्युत्	-8.59555
▁कर	-8.59631
▁पराजित	-8.59774
द्वारा	-8.59797
▁क्षेत्रका	-8.59853
▁जनाइएको	-8.59863
▁विवरण	-8.60006
▁साधन	-8.60414
▁३५	-8.6048
▁पौडेल	-8.60611
▁महत्वपूर्ण	-8.60661
▁यस्ता	-8.60713
▁हुनुपर्ने	-8.60864
▁माधव	-8.60865
▁रोजगारी	-8.60907
▁उपाध्यक्ष	-8.60938
▁मिनेटमा	-8.60982
▁अवसरमा	-8.61114
▁संसद्	-8.61262
▁दिनमा	-8.61385
ि	-8.61495
▁समाज	-8.61601
▁लगाउने	-8.61822
▁३१	-8.61836
▁उहाँले	-8.61907
▁अधिकारीले	-8.61938
छ	-8.61944
▁गर्नुपर्छ	-8.62039
▁व्यवसाय	-8.62391
▁समन्वय	-8.62528
▁कतिपय	-8.62955
मार्फत	-8.62959
▁यातायात	-8.62982
▁कार्यकारी	-8.63018
हरुको	-8.63126
▁चरणमा	-8.63155
▁क्लब	-8.63519
▁समाचार	-8.63753
▁अन्तर्गत	-8.63908
▁सुविधा	-8.63969
▁भदौ	-8.64083
▁महामारी	-8.6412
▁सम्पूर्ण	-8.64154
▁नेपालका	-8.64258
▁दक्षिण	-8.64538
▁सुदूरपश्चिम	-8.64633
▁नियन्त्रणमा	-8.64691
▁सिफारिस	-8.64925
▁प्रदर्शन	-8.65067
▁कार्की	-8.6519
▁यसलाई	-8.65293
▁थिएन	-8.65434
▁जनसंख्या	-8.65605
▁नाममा	-8.65711
▁अधिकांश	-8.65866
▁टोलीले	-8.65867
▁सेयर	-8.65902
▁पुग्ने	-8.65971
▁नदी	-8.66157
▁समाजवादी	-8.66457
▁रोग	-8.66655
▁मंसिर	-8.6686
▁बढ्ने	-8.66979
▁थिइन्	-8.67315
▁प्रणाली	-8.67399
▁क्षमता	-8.67653
▁अवधिमा	-8.67822
▁देशको	-8.67856
▁शेरबहादुर	-8.67937
▁खड्का	-8.67938
▁प्रतिवेदन	-8.68134
▁अनुमान	-8.68245
▁प्राधिकरण	-8.6846
▁निको	-8.68515
▁तत्कालीन	-8.68568
▁चीन	-8.68623
▁कार्यकर्ता	-8.68635
▁विसं	-8.68689
▁चिनियाँ	-8.68696
▁राख्न	-8.68699
▁पर्छ	-8.68825
विरुद्ध	-8.68861
▁अर्थ	-8.68903
▁नि	-8.68985
▁विमानस्थल	-8.69038
▁तर्फबाट	-8.69358
▁व्यवसायी	-8.69469
▁चौधरी	-8.69513
▁दिँदै	-8.69741
▁सिर्जना	-8.69885
▁राजीनामा	-8.69976
▁प्रदेशसभा	-8.70495
▁गाउँ	-8.70617
▁राहत	-8.70907
▁आए	-8.71425
▁त्यसलाई	-8.71447
▁कार्यालयका	-8.71488
▁मिटर	-8.71561
▁आयोगले	-8.71573
▁गरेकी	-8.71641
▁कानुन	-8.7195
▁तय	-8.7212
▁चुनाव	-8.72125
▁मौसम	-8.7224
▁पत्र	-8.72258
▁कात्तिक	-8.72305
▁फेला	-8.72318
▁बढाउन	-8.72517
▁साँझ	-8.7253
▁बढ्दै	-8.72713
▁फैसला	-8.72735
▁गुनासो	-8.72735
▁अन्त्य	-8.72758
▁देशमा	-8.7279
▁ल्याएको	-8.7284
▁आफूलाई	-8.72959
▁मापदण्ड	-8.73007
▁सुरक्षित	-8.73172
▁ल्याउने	-8.73173
▁भारतको	-8.73176
▁भर्ना	-8.73248
▁७०	-8.73259
▁परीक्षा	-8.73269
▁छिन्	-8.73351
▁कांग्रेसका	-8.73392
▁निर्वाचित	-8.737
▁खनाल	-8.73722
▁स्थान	-8.73724
▁संशोधन	-8.73728
▁अ	-8.73744
▁प्रभावकारी	-8.73937
▁फुटबल	-8.73957
▁राजधानी	-8.73957
▁अवसर	-8.74156
▁राखेको	-8.7443
▁कोइराला	-8.74518
▁वित्तीय	-8.74681
▁निरन्तर	-8.74701
▁अदालतले	-8.74725
▁त्यसैगरी	-8.74999
▁धारणा	-8.75024
▁विभागले	-8.7507
▁कोरोनाको	-8.75187
▁खेलाडी	-8.75233
▁दुर्घटना	-8.75275
▁गर्छन्	-8.75376
▁ऋण	-8.75502
▁३२	-8.75571
▁होटल	-8.75651
▁आवश्यकता	-8.75801
▁सम्म	-8.76016
▁समर्थन	-8.76081
▁होला	-8.76135
▁गएका	-8.763
▁नियुक्त	-8.76864
▁आयात	-8.76961
▁पर्यटक	-8.77037
▁सम्बन्धमा	-8.77114
▁समूहले	-8.77253
▁संरचना	-8.77362
▁ठूला	-8.77368
▁भनेको	-8.776
▁पाएको	-8.77644
▁संयोजक	-8.77711
▁पाण्डे	-8.77892
ँ	-8.7794
▁अनि	-8.78128
▁नसक्ने	-8.78153
▁सङ्ख्या	-8.78192
▁ओलीको	-8.78367
▁गरिएका	-8.78447
▁नगर	-8.78629
▁प्राविधिक	-8.78639
▁अनुमति	-8.78739
▁बढ्न	-8.78784
▁संकलन	-8.78865
▁शान्ति	-8.7887
▁यसरी	-8.79097
▁जस्ता	-8.79278
▁उपरीक्षक	-8.79308
▁लगायतका	-8.79315
▁संलग्न	-8.79323
▁जिल्लाका	-8.79346
▁औं	-8.79494
▁शेयर	-8.79612
▁आम्दानी	-8.79684
▁पहल	-8.79994
▁लगाउन	-8.80254
▁लागू	-8.80647
▁पारेको	-8.80692
बाटै	-8.80954
▁यसै	-8.8113
▁यसमा	-8.81139
▁कांग्रेसले	-8.81256
▁बराबर	-8.81327
▁औषधि	-8.81461
▁नेतृत्वमा	-8.81994
▁मन्दिर	-8.82043
▁जम्मा	-8.8208
▁प्रेस	-8.82249
▁आधार	-8.82266
▁संघ	-8.82341
▁सभामुख	-8.82375
▁विधेयक	-8.82542
िक	-8.82727
▁लगाएको	-8.83182
▁नेतृत्वको	-8.83344
▁गराएको	-8.83388
▁उम्मेदवार	-8.83736
▁शाखा	-8.83737
▁उनीहरुको	-8.83823
▁बन्न	-8.83941
▁तह	-8.84054
▁तथ्यांक	-8.84181
▁राज्य	-8.84203
▁सम्मान	-8.84441
▁नेताहरु	-8.84516
▁अक्सिजन	-8.84875
▁यसैगरी	-8.85149
▁टिम	-8.85165
▁पहिचान	-8.85235
▁बहस	-8.85251
▁अफ	-8.85335
▁लुम्बिनी	-8.85429
▁मानव	-8.85635
▁अनुगमन	-8.85647
▁पदाधिकारी	-8.85811
▁ठाउँ	-8.85948
▁उनीहरू	-8.86001
▁किलोमिटर	-8.86015
▁आयोजित	-8.86078
▁जहाज	-8.86229
▁प्रत्येक	-8.86339
▁राजनीति	-8.8653
▁बताइन्	-8.86639
▁पुष्पकमल	-8.86671
▁सशस्त्र	-8.86719
(	-8.8682
▁लागेका	-8.87124
▁८०	-8.87634
▁संविधानको	-8.87648
▁दशमलव	-8.87662
▁थालेका	-8.87788
▁भुक्तानी	-8.87959
▁विकेट	-8.88079
▁नभए	-8.88102
▁हुन्छन्	-8.88205
▁जनाएका	-8.88232
▁तहमा	-8.88301
▁त्यसमा	-8.88386
▁मिनेट	-8.88427
▁कार्यालयमा	-8.88438
▁चलचित्र	-8.88449
▁उपभोक्ता	-8.88467
▁स्वास्थ्यकर्मी	-8.88595
▁बस्न	-8.88861
▁काममा	-8.88937
▁पहाडी	-8.88966
▁४५	-8.89128
▁सडकमा	-8.89212
▁धारा	-8.89224
▁भाग	-8.89306
▁भएन	-8.8932
▁खान	-8.89423
▁कदम	-8.89478
▁नतिजा	-8.89614
▁क्रिकेट	-8.89711
▁चालक	-8.89896
▁कमजोर	-8.89924
▁अमेरिका	-8.90056
▁बन्ने	-8.90087
▁कम्पनीको	-8.90195
▁ललितपुर	-8.9035
▁गरिसकेको	-8.90487
▁बाढी	-8.90566
▁बनेका	-8.90621
▁नहुँदा	-8.90661
▁पद	-8.90705
▁खुला	-8.91058
▁निवास	-8.91158
ता	-8.9161
▁अघिल्लो	-8.91902
▁महानगर	-8.91914
▁अनुरोध	-8.92041
▁खाना	-8.92081
▁देखिएका	-8.92251
▁ढकाल	-8.9226
▁दलका	-8.92416
▁अर्का	-8.9256
▁गतेदेखि	-8.92577
▁शक्ति	-8.92743
▁भनेका	-8.92744
▁भण्डारीले	-8.92789
▁ट्रम्प	-8.92873
▁निधन	-8.92881
▁यता	-8.92881
▁काठमाडौंमा	-8.93158
▁शर्माले	-8.9324
▁हस्ताक्षर	-8.93369
नेकपा	-8.93406
▁जति	-8.9352
▁योसँगै	-8.93676
▁आह्वान	-8.93813
▁भनिन्	-8.93953
▁त्यस्तो	-8.94031
▁न्याय	-8.94054
▁गरिन्छ	-8.94087
▁यसका	-8.94088
▁आजको	-8.94098
▁खेती	-8.94099
▁वाणिज्य	-8.94176
▁धान	-8.94223
▁पारित	-8.94258
▁संगठन	-8.94286
▁३३	-8.9435
▁मेडिकल	-8.9465
▁तामाङ	-8.94979
▁सिंह	-8.9503
▁तरकारी	-8.95066
▁कार्यरत	-8.95092
▁समूहका	-8.95212
▁डलर	-8.95368
▁जवाफ	-8.95532
▁निर्माणका	-8.95534
▁उत्कृष्ट	-8.95734
▁भ्रमण	-8.95833
▁पाइएको	-8.95973
▁विभाग	-8.96076
▁वैदेशिक	-8.96173
▁लिएका	-8.96221
▁सत्ता	-8.96402
▁पु	-8.96443
▁लगाएका	-8.96447
▁भिडियो	-8.96581
▁गलत	-8.96938
▁यात्रु	-8.97039
▁पाएका	-8.97055
हरुमा	-8.97117
▁निर्वाचनमा	-8.97183
▁गतिविधि	-8.9723
री	-8.97267
▁सकारात्मक	-8.97386
▁भन्न	-8.97469
▁रिपोर्ट	-8.97634
▁साना	-8.97786
▁छनोट	-8.97821
▁उद्धार	-8.9785
▁सुन	-8.97898
▁बालुवाटार	-8.97956
▁सहकारी	-8.98067
▁अहिलेको	-8.98103
▁जिल्लाको	-8.98228
▁गरि	-8.98422
▁शुल्क	-8.98572
▁अध्यादेश	-8.98591
▁सामान	-8.98762
▁शाह	-8.98843
▁वस्तु	-8.98969
▁स्थगित	-8.9899
▁गराएका	-8.99144
▁योगदान	-8.99146
▁खोजी	-8.99344
▁कुन	-8.99364
▁कम्युनिस्ट	-8.99676
▁सरकारका	-8.99768
▁बढाउने	-8.99819
▁पर्व	-8.99917
▁सम्मेलन	-8.99945
▁व्यक्तिको	-8.99983
▁लामा	-9.00043
▁मान्यता	-9.00056
▁विज्ञान	-9.00156
▁नभएका	-9.00162
▁महासचिव	-9.00244
▁शीर्ष	-9.00294
▁साता	-9.00297
▁स	-9.00403
▁एजेन्सी	-9.0042
▁परियोजना	-9.00456
▁७५	-9.006
▁कानून	-9.00948
▁प्रविधि	-9.01039
▁सहयोगमा	-9.01133
▁वार्षिक	-9.01407
▁बसेर	-9.01467
▁उद्घाटन	-9.01606
▁निषेधाज्ञा	-9.01651
▁पेश	-9.01655
▁वार्ता	-9.0175
▁ए	-9.01807
▁झण्डै	-9.01831
भित्र	-9.02076
▁संस्कृति	-9.02136
▁अझ	-9.02234
▁छोरा	-9.02234
▁पूजा	-9.02283
▁महिनामा	-9.0242
▁पार्न	-9.02499
▁भण्डारी	-9.02646
▁नगरपालिकाले	-9.0265
रुपमा	-9.02733
▁बैंकको	-9.02746
▁अर्थात्	-9.02819
▁भूकम्प	-9.0303
▁हस्तान्तरण	-9.03183
▁चयन	-9.03226
▁उनीहरुलाई	-9.0324
▁चिकित्सक	-9.03373
▁उपत्यकामा	-9.03407
▁विचार	-9.03425
▁वर्षदेखि	-9.03426
ं	-9.03578
▁कांग्रेसको	-9.03595
▁७६	-9.03638
▁तोकिएको	-9.03689
▁पोखरेल	-9.0373
त	-9.03797
▁यहाँका	-9.03809
▁विदेश	-9.03815
▁लाग्छ	-9.03834
▁घरेलु	-9.03926
▁मन्त्रालयको	-9.03945
जस्ता	-9.04021
▁बहुमत	-9.04139
▁निकाय	-9.04202
▁गतेसम्म	-9.04269
▁गाडी	-9.04307
▁जाँदा	-9.04376
गरी	-9.04421
▁वर्तमान	-9.04477
▁जस्तै	-9.04493
▁सहभागिता	-9.04588
▁कसैले	-9.04719
▁माथि	-9.04733
▁एकै	-9.04778
▁खेलको	-9.04943
▁खानेपानी	-9.04965
▁प्रतिशतले	-9.05135
▁विवाह	-9.05186
▁पक्षले	-9.05219
▁९०	-9.05468
हरूले	-9.05479
▁पोखरेलले	-9.05509
▁सञ्चालक	-9.05541
▁सामुदायिक	-9.05565
▁बलियो	-9.0559
▁कामदार	-9.05683
▁मास्क	-9.05687
▁प्रतिबद्धता	-9.05704
▁केन्द्रका	-9.05759
▁शिक्षक	-9.0588
▁मल	-9.06035
▁मन्त्रिपरिषद्	-9.06075
▁भन्सार	-9.06213
▁थालेपछि	-9.06233
▁नगर्ने	-9.06355
▁महाशाखा	-9.06495
▁विष्णु	-9.06574
▁अनुदान	-9.06723
▁जो	-9.06799
▁पालना	-9.06814
▁विकल्प	-9.06864
▁समुदाय	-9.0695
▁भएपनि	-9.06982
▁कूल	-9.07016
▁भनी	-9.07086
▁आ	-9.07242
▁हिजो	-9.07339
▁चालु	-9.07355
▁कोही	-9.07432
▁बमोजिम	-9.07442
▁उत्तर	-9.07543
तिर	-9.07563
▁बसेका	-9.0757
▁लागिएको	-9.07633
▁कक्षा	-9.07841
▁प्रतिस्पर्धा	-9.07971
▁विधि	-9.08028
▁प्रचण्डले	-9.08032
▁छोरी	-9.08039
▁कोष	-9.08084
▁मुलुकमा	-9.08196
▁अदालतमा	-9.08232
▁आएपछि	-9.08238
▁हुनुपर्छ	-9.0835
▁मतदान	-9.08459
▁वर्षा	-9.08659
▁त्यसका	-9.08827
▁चर्चा	-9.08951
हरूको	-9.09055
▁विनियोजन	-9.09393
▁नरहेको	-9.09403
▁दिएर	-9.09415
अन्तर्गत	-9.09807
▁३४	-9.09844
▁साढे	-9.09872
▁महानगरपालिका	-9.10005
▁विज्ञप्तिमा	-9.1014
▁मुक्त	-9.1022
▁मोटरसाइकल	-9.10477
▁अनुभव	-9.10532
▁आव	-9.10638
▁घण्टा	-9.10638
▁लोकतान्त्रिक	-9.10916
▁ऊर्जा	-9.10975
▁कस्तो	-9.11063
▁जसले	-9.1107
पूर्ण	-9.11098
▁बस	-9.11278
▁प्रदेशको	-9.1138
▁५५	-9.1151
ट	-9.11622
▁निर्माणको	-9.11622
▁परिचालन	-9.11679
▁तुलनामा	-9.11747
▁राखेका	-9.11812
▁सङ्कलन	-9.11924
▁आयोग	-9.11926
▁सकिएको	-9.11989
▁लोकतन्त्र	-9.12133
▁भित्र	-9.12152
रूपमा	-9.12174
▁आयोजनाको	-9.12212
▁प्रतियोगिता	-9.12318
▁भारतले	-9.12454
▁उपाधि	-9.12514
▁औँ	-9.12785
▁ओलीलाई	-9.12876
▁सञ्चार	-9.12976
▁प्रहार	-9.13068
▁३६	-9.13347
▁अनिवार्य	-9.13363
▁श्रम	-9.13535
▁प्रतिष्ठान	-9.1355
▁विराटनगर	-9.13555
▁मिति	-9.13588
▁हामीलाई	-9.1363
▁कमी	-9.13651
▁कहिले	-9.13663
▁ठेक्का	-9.1386
▁सबैलाई	-9.13949
▁जनाले	-9.14033
▁नगरपालिकाका	-9.14068
▁निर्धारण	-9.14175
▁विधान	-9.14406
▁तहका	-9.14471
▁जरुरी	-9.14483
▁उमेर	-9.14507
▁सैनिक	-9.14514
▁यति	-9.14579
▁६५	-9.14608
▁सहकार्य	-9.14638
▁केन्द्रित	-9.14688
▁भेला	-9.14707
▁आम	-9.14802
▁माया	-9.15063
▁नियम	-9.15109
▁वडाध्यक्ष	-9.15118
▁नायब	-9.15199
▁गृह	-9.15229
यो	-9.1524
▁गाउँपालिकाका	-9.15403
▁नजिक	-9.15418
▁रोक्न	-9.15533
▁धार्मिक	-9.15729
▁खबर	-9.15877
▁घटेको	-9.15985
▁कर्जा	-9.1613
▁निःशुल्क	-9.16231
▁मृतक	-9.16235
▁२०७७	-9.16258
▁जे	-9.16323
▁कम्तीमा	-9.16727
▁निवेदन	-9.16752
जस्तो	-9.16844
▁कारणले	-9.16861
▁पुगेर	-9.16907
▁रिट	-9.16924
▁जनशक्ति	-9.17044
▁कलेज	-9.1706
▁निरन्तरता	-9.17062
▁बालबालिका	-9.17092
▁चुनौती	-9.17181
▁सङ्घ	-9.1743
▁अमेरिकामा	-9.17577
▁उपत्यका	-9.17717
▁पश्चिम	-9.17785
▁संकट	-9.17962
▁गएर	-9.18141
▁भ्रष्टाचार	-9.18209
▁अन्तर	-9.18387
▁प्रधान	-9.1841
▁उजुरी	-9.18463
▁मैदानमा	-9.18465
▁प्रेम	-9.18503
▁विभागका	-9.18779
ने	-9.18892
▁बदली	-9.19051
▁खर्ब	-9.19094
▁मुलुकको	-9.19127
▁एउटै	-9.19343
▁दुर्घटनामा	-9.19376
बाहेक	-9.19488
▁पुग्न	-9.1961
▁मध्ये	-9.19657
▁भएसँगै	-9.19684
▁खेलकुद	-9.2
▁अवरुद्ध	-9.20113
▁लगाइएको	-9.20148
▁नभई	-9.20158
▁न्यायाधीश	-9.20307
▁सहित	-9.20322
▁बागलुङ	-9.20352
▁कारवाही	-9.20552
▁थालिएको	-9.2069
▁जनताले	-9.20753
▁कुराकानी	-9.20765
▁गए	-9.20795
▁संक्रमणबाट	-9.20812
▁टिप्पणी	-9.20816
▁देखाएको	-9.20836
▁बाध्य	-9.21048
▁बताउनुभयो	-9.21208
▁सम्बन्धी	-9.2122
▁पुरस्कार	-9.21223
▁रावल	-9.21261
▁थोरै	-9.21339
▁विगत	-9.21355
▁चीनको	-9.21426
▁योग	-9.21506
▁सापकोटा	-9.21645
▁अर्थतन्त्र	-9.21775
▁छुट	-9.21839
▁चासो	-9.22139
▁मूल	-9.22161
▁भइरहेका	-9.22203
▁महिलाको	-9.22454
▁आएर	-9.22468
▁पीडित	-9.2252
▁तहको	-9.22617
▁फैलिएको	-9.22673
▁प्रधानन्यायाधीश	-9.22677
▁आमा	-9.22781
▁सन्देश	-9.22791
मात्र	-9.22882
▁आपूर्ति	-9.22895
▁उपस्थित	-9.2297
ः	-9.22981
▁३८	-9.22995
▁बेपत्ता	-9.23001
▁क्रम	-9.23024
▁भक्तपुर	-9.23133
▁४२	-9.23166
▁दिवस	-9.23236
▁गाउँमा	-9.23264
▁अस्पतालका	-9.23312
▁प्रकाश	-9.23344
▁दिनुपर्ने	-9.23395
▁ट्राफिक	-9.23415
▁स्थिति	-9.23445
▁अग्रता	-9.23573
▁खतिवडा	-9.23664
▁अर्थमन्त्री	-9.23834
▁केहि	-9.2384
▁नगरी	-9.23919
▁विभाजन	-9.2393
▁साझा	-9.24007
▁बनाइएको	-9.24023
▁एमालेका	-9.24092
▁केन्द्रमा	-9.2432
▁व्यावसायिक	-9.24378
▁प्रति	-9.2438
▁बल	-9.24382
▁सम्पर्क	-9.24523
▁जिम्मा	-9.24566
▁हवाई	-9.24595
▁सरकारमा	-9.2462
▁पाउन	-9.24702
▁ध्यानाकर्षण	-9.24764
▁गर्नेछ	-9.24946
▁या	-9.25024
▁कहाँ	-9.25058
▁सानो	-9.2516
▁२०७५	-9.25173
▁गठबन्धन	-9.2521
▁आक्रमण	-9.25245
▁यदि	-9.25486
▁थान	-9.25527
▁कडा	-9.25568
▁बीमा	-9.25624
▁भनाई	-9.25673
▁मोबाइल	-9.2575
▁माध्यमबाट	-9.25784
▁सपना	-9.25819
▁पार्टीले	-9.25889
▁सालमा	-9.26106
▁यसैबीच	-9.26119
▁दुःख	-9.26217
▁अपेक्षा	-9.26232
▁निर्यात	-9.26248
▁जसमा	-9.26371
▁कैलाली	-9.26477
▁चरणको	-9.26478
▁विद्युत	-9.26491
▁प्राथमिकता	-9.2668
▁३७	-9.26759
▁फर्किएका	-9.26808
▁प्रत्यक्ष	-9.26911
▁दबाब	-9.26941
▁चिन्ता	-9.27008
▁हल्का	-9.2715
▁पुरानो	-9.27174
▁सञ्जाल	-9.27388
▁बागमती	-9.27689
▁बस्ती	-9.27841
▁स्थानीयवासी	-9.2787
▁मोरङ	-9.27937
▁बनाएका	-9.27969
▁सुनुवाइ	-9.28042
▁प्रहरीको	-9.28051
▁शाक्य	-9.28132
▁पदार्थ	-9.28177
▁हेर्दा	-9.282
▁हुना	-9.2831
▁हुनेको	-9.28386
▁पार्ने	-9.28578
▁विपक्षी	-9.28579
▁उपयुक्त	-9.28609
▁हेर्न	-9.28688
▁समयदेखि	-9.28797
▁समान	-9.2883
▁रक्षा	-9.28896
▁रहेकाले	-9.28926
औँ	-9.28976
▁आयो	-9.28986
▁तर्क	-9.29012
▁भूमि	-9.2902
▁मिलेर	-9.29141
▁गर्	-9.29176
▁हुनेछन्	-9.29188
▁राजा	-9.29231
▁स्थापित	-9.29307
▁आलोचना	-9.29351
▁छिमेकी	-9.29378
▁जब	-9.29391
▁नागरिकता	-9.29445
▁व्यवस्थित	-9.29591
▁मान्छे	-9.29611
▁कुमार	-9.29675
▁पठाएको	-9.29685
▁छलफलमा	-9.29761
▁विश्वविद्यालय	-9.29814
▁छानबिन	-9.29902
▁सेनाले	-9.29934
▁बताएको	-9.29961
▁२०२०	-9.29963
▁नसक्दा	-9.30035
▁बढाएको	-9.30037
▁विज्ञप्ति	-9.30086
▁अपराध	-9.30175
▁उचित	-9.30236
▁उपमहानगरपालिका	-9.30242
▁प्रशिक्षक	-9.30248
▁सुर्खेत	-9.30298
▁भोलि	-9.30391
▁प्रगति	-9.30501
▁लाइन	-9.30506
▁सरकारसँग	-9.309
▁होम	-9.30912
▁रोकथाम	-9.31071
▁प्राकृतिक	-9.3109
▁झापा	-9.31107
▁नेपाललाई	-9.31183
▁शैक्षिक	-9.3124
▁रहेछ	-9.31382
▁४८	-9.31422
▁दूरी	-9.31673
▁व्यक्तिगत	-9.3182
▁सर्वसाधारण	-9.32048
हरूलाई	-9.32126
▁राजेन्द्र	-9.32145
▁गर्दछ	-9.32161
▁नगरेको	-9.32192
▁साल	-9.3225
▁महामारीका	-9.32537
▁मामिला	-9.32593
▁नियुक्ति	-9.326
▁हासिल	-9.32654
▁राजस्व	-9.32662
▁कृष्ण	-9.3291
ला	-9.32913
▁नदिने	-9.33005
▁लगाएर	-9.33068
▁भारतबाट	-9.33072
▁प्रकाशित	-9.33079
▁नाका	-9.33111
▁प	-9.33123
▁थपिएका	-9.3313
▁कला	-9.3326
▁एकीकृत	-9.33474
▁ढंग	-9.33602
▁चेतावनी	-9.33604
▁तपाई	-9.3362
▁न्यौपाने	-9.33684
▁पर्याप्त	-9.33688
▁परी	-9.33867
▁डिभिजन	-9.33996
▁त्यति	-9.34104
▁गराए	-9.34228
▁सुवेदी	-9.34318
ाले	-9.34407
▁जनतालाई	-9.34465
▁कृषक	-9.34659
▁प्राधिकरणले	-9.34832
▁आँखा	-9.34868
▁चिया	-9.34941
▁नेकपाका	-9.34981
▁आंशिक	-9.35015
▁इतिहास	-9.35048
▁४१	-9.35077
▁उ	-9.35166
▁फोन	-9.35282
▁प्रसारण	-9.35331
▁समूहको	-9.35453
▁खारेज	-9.3546
▁जाँच	-9.35467
▁संक्रमणमुक्त	-9.35526
▁सन्दर्भमा	-9.35548
▁खाने	-9.35583
▁लगातार	-9.35596
▁सेना	-9.35645
▁मार्फत	-9.35676
▁जडान	-9.35685
▁समग्र	-9.35706
▁उत्पन्न	-9.3574
▁प्रतिक्रिया	-9.35862
▁विद्यालयमा	-9.35878
▁त्यसले	-9.36098
▁दलित	-9.36218
▁एमालेको	-9.36316
▁सत्तारुढ	-9.36316
▁धर्म	-9.36441
▁ल्याइएको	-9.36446
▁बीचमा	-9.36608
▁५१	-9.36646
▁सम्भव	-9.36744
▁खोला	-9.36903
▁खतरा	-9.37006
▁रोजगार	-9.37033
▁प्रतिबन्ध	-9.37056
▁प्रतिपक्षी	-9.37076
▁चिसो	-9.3708
▁भरतपुर	-9.37152
▁विकासका	-9.37162
▁एवम्	-9.37198
▁नागरिकको	-9.37281
▁सहायक	-9.37297
▁गर्नका	-9.37356
▁राजदूत	-9.374
▁४३	-9.37674
▁पहुँच	-9.37718
▁पास	-9.37733
▁प्रवाह	-9.3776
▁३९	-9.37801
▁आधा	-9.37864
▁जानेछ	-9.3789
▁त्रिभुवन	-9.37985
▁उसले	-9.38035
▁समयमै	-9.38097
▁तपाईं	-9.38202
▁विजयी	-9.38225
▁अविश्वास	-9.38241
▁व्यवहार	-9.38287
▁छिटो	-9.38326
▁जस	-9.38487
▁सजाय	-9.38622
▁राजमार्ग	-9.38716
▁७७	-9.38721
▁इजलास	-9.38746
▁पेस	-9.38794
▁पसल	-9.38854
▁गर्नुभएको	-9.38924
▁मुद्दामा	-9.39095
▁सोच	-9.39104
▁ग	-9.39354
▁लगानीकर्ता	-9.39412
▁५२	-9.39465
▁गिरी	-9.39532
▁याउने	-9.396
▁गाउँपालिकामा	-9.39628
▁अनलाइन	-9.39689
▁महासंघ	-9.39692
▁बोल्दै	-9.39751
▁औपचारिक	-9.39758
▁४४	-9.39859
न्	-9.39871
▁अस्पतालले	-9.39898
▁महामारीको	-9.40037
▁५३	-9.4006
▁मात्रा	-9.40139
▁आफन्त	-9.40225
▁विष्ट	-9.40256
▁सदरमुकाम	-9.40289
▁नजिकै	-9.40334
▁भएकी	-9.40371
▁स्रोतले	-9.40418
▁पक्षका	-9.40478
▁गृहमन्त्री	-9.40502
▁पहिला	-9.4062
▁विरुद्ध	-9.40739
▁चीनले	-9.40822
▁भेट	-9.40828
▁बीच	-9.40877
▁५६	-9.40879
▁कोरोनाभाइरस	-9.40941
▁बन्दै	-9.41023
▁आइसोलेसन	-9.41067
▁लगाए	-9.41239
▁पदमा	-9.41253
▁हुँदैछ	-9.41284
▁राष्ट्रियसभा	-9.41446
▁होस्	-9.41504
▁उद्देश्य	-9.41512
▁प्रावधान	-9.41588
▁सबैको	-9.41616
▁उनीहरूले	-9.41735
▁नगद	-9.41753
▁आगलागी	-9.41795
▁सही	-9.41813
▁पीसीआर	-9.41867
▁भत्ता	-9.41877
▁ठाकुर	-9.41898
▁बाहेक	-9.41974
▁निश्चित	-9.42017
▁सचेत	-9.4206
▁क्रियाशील	-9.42074
▁दुबै	-9.42083
▁तालिम	-9.42198
▁बजेर	-9.42227
▁भेटिएको	-9.42263
▁तनहुँ	-9.42267
▁भुसाल	-9.42305
▁रोक	-9.42504
सहितको	-9.42528
▁बिमा	-9.42549
▁वर्षाको	-9.42613
▁कानुनी	-9.42677
▁पठाउने	-9.42774
▁गणतन्त्र	-9.42797
▁पार्टीमा	-9.42865
▁हुनसक्ने	-9.42876
▁घटनामा	-9.42907
▁ऐतिहासिक	-9.42935
▁प्रतियोगितामा	-9.43059
▁सकेन	-9.4306
▁आउँछ	-9.43118
▁विगतमा	-9.43132
▁छन	-9.43154
▁हिंसा	-9.43204
▁जोखिममा	-9.43293
▁हाम्रा	-9.43372
▁नगर्न	-9.43422
▁प्रशिक्षण	-9.43487
▁स्वतन्त्र	-9.43495
▁निर्माणमा	-9.43507
जन्य	-9.43561
▁चौथो	-9.43565
▁१००	-9.43615
▁पुन	-9.43834
▁अधिवक्ता	-9.43835
▁अस्पतालको	-9.43884
▁व्यक्तिले	-9.43937
▁त्यस्ता	-9.43944
▁तीव्र	-9.44286
▁मगर	-9.44405
मात्रै	-9.44595
▁अवधि	-9.44657
▁रहे	-9.44673
▁बढेर	-9.44693
▁निरीक्षक	-9.44707
▁गति	-9.44789
▁रेल	-9.44837
▁मल्ल	-9.4485
▁जापान	-9.44921
▁अभ्यास	-9.44989
▁धनगढी	-9.45045
▁सदस्यीय	-9.45054
▁विदेशमा	-9.45147
▁फाइनल	-9.45154
▁राणा	-9.45167
▁लहर	-9.45173
▁उम्मेदवारी	-9.45214
▁आशा	-9.45349
▁बेलायत	-9.45371
▁महत्व	-9.45406
▁बुधवार	-9.45407
▁मतदाता	-9.45434
लाल	-9.45459
▁पारे	-9.45552
▁बलात्कार	-9.45569
▁सिटी	-9.45646
▁म्याद	-9.45789
▁समावेश	-9.45835
▁खाद्य	-9.45883
▁०	-9.45924
▁समितिमा	-9.45948
▁दाङ	-9.45955
▁कित्ता	-9.45967
▁बुटवल	-9.46168
▁शरीर	-9.46254
▁भागमा	-9.4629
▁नम्बरको	-9.46336
▁फाइदा	-9.46367
▁हुन्थ्यो	-9.46374
▁हुनुहुन्छ	-9.46408
य	-9.46432
▁जनप्रतिनिधि	-9.46534
▁बजेसम्म	-9.46536
▁सम्पत्ति	-9.46544
▁निगमले	-9.46603
▁पत्ता	-9.46604
▁पार्टीभित्र	-9.46687
▁सप्तरी	-9.46734
▁परिणाम	-9.469
▁४६	-9.46929
▁क्षेत्रीय	-9.47054
▁बनाए	-9.47122
▁दैनिकबाट	-9.47225
▁हेर्ने	-9.47274
▁पर्यटकीय	-9.47289
ई	-9.4729
▁खुशी	-9.474
▁न्यूनतम	-9.47528
▁ज्ञान	-9.47553
▁महतो	-9.47597
▁नमूना	-9.47627
▁पुनर्निर्माण	-9.47663
▁सदस्यहरु	-9.47697
▁अभिव्यक्ति	-9.47714
▁आयोगका	-9.47874
▁धन	-9.47876
▁लक्षित	-9.47883
▁हिसाबले	-9.47889
▁आयोगको	-9.47899
▁मेलम्ची	-9.47901
▁लक्षण	-9.47931
▁जरिवाना	-9.47983
▁निकुञ्ज	-9.47989
▁संस्थागत	-9.48093
▁सम्मेलनमा	-9.48261
▁उहाँ	-9.48307
▁आवाज	-9.48347
▁सफा	-9.4847
▁बिजुली	-9.48496
्स	-9.48519
▁वर्षअघि	-9.48565
▁पाइन्छ	-9.486
▁चन्द	-9.48702
▁कुरामा	-9.4875
▁लैजाने	-9.48811
▁जसपा	-9.48895
▁इलाका	-9.49234
▁चोरी	-9.49257
▁प्रधानमन्त्रीको	-9.49291
▁शासन	-9.49329
▁मर्मत	-9.49434
▁दायर	-9.49531
▁नारायण	-9.49633
▁पठाइएको	-9.49736
▁सफलता	-9.49749
▁स्वदेश	-9.49774
▁सामना	-9.49887
▁सांस्कृतिक	-9.50062
▁संघका	-9.50167
▁क्षेत्रलाई	-9.50175
▁अवरोध	-9.50185
▁५००	-9.50263
▁महोत्तरी	-9.50333
▁प्रवृत्ति	-9.50395
▁निष्कर्ष	-9.505
प	-9.50525
▁अख्तियार	-9.50593
▁पछिल्ला	-9.50607
▁कथा	-9.5061
▁रोकिएको	-9.50613
▁रुपन्देही	-9.50629
▁प्रजातन्त्र	-9.50642
▁नियन्त्रणका	-9.5071
▁७२	-9.50755
▁भन्नुभयो	-9.50772
▁सुरक्षाकर्मी	-9.50804
▁परिवारका	-9.50815
▁आदि	-9.50858
▁राम	-9.50884
▁५८	-9.50893
▁आफै	-9.50893
▁शुभकामना	-9.50971
▁न्यून	-9.50972
▁आयोजक	-9.51056
▁बैंकका	-9.5107
▁आगो	-9.5109
व	-9.51115
▁प्रदीप	-9.51159
▁उद्देश्यले	-9.51238
▁जनाए	-9.5124
▁५४	-9.51312
▁पाइने	-9.51316
▁लिए	-9.51355
▁परिषद्	-9.51392
▁जनाउँदै	-9.51396
▁खेल्ने	-9.51429
▁लाग्न	-9.51429
▁स्थित	-9.5152
▁शाही	-9.51529
▁२०७६	-9.5153
▁स्वीकृति	-9.51567
▁बाध्यता	-9.51594
▁कारागार	-9.51716
▁नदीमा	-9.51726
▁नदिन	-9.51727
▁विमान	-9.51739
ख	-9.51868
▁आचार्य	-9.51893
▁स्वीकृत	-9.52025
▁विद्यादेवी	-9.52143
▁भाषा	-9.5219
▁उपकरण	-9.52214
▁नभएर	-9.52222
▁वर्षका	-9.52257
▁विजय	-9.52264
▁२०७४	-9.52289
▁अधिकारीहरु	-9.52418
▁गोली	-9.52424
▁गुमाएका	-9.52481
▁संघर्ष	-9.52536
▁डाक्टर	-9.52574
▁गन्तव्य	-9.52599
▁कप्तान	-9.52743
औं	-9.52751
▁मानिसहरु	-9.52844
▁राखे	-9.52866
▁डोज	-9.52991
▁कलाकार	-9.52995
▁सङ्घीय	-9.53054
▁गाउँपालिकाको	-9.53144
▁बिदा	-9.53144
▁सबैले	-9.53404
▁तोकेको	-9.53597
▁आवेदन	-9.53604
▁फरार	-9.53746
▁निकट	-9.538
▁दिनको	-9.53932
▁नेप्से	-9.53954
▁खाली	-9.54037
▁सिंहले	-9.54088
▁४७	-9.54113
▁सूर्य	-9.54139
▁थिएँ	-9.54328
▁गर्नुभयो	-9.54472
▁बच्चा	-9.54509
▁वर्षसम्म	-9.54547
▁रही	-9.5459
▁त्यसो	-9.546
सिंह	-9.54655
▁सुनसरी	-9.54733
▁६४	-9.54784
▁खुसी	-9.5482
▁पार्टीलाई	-9.5482
▁उपचाररत	-9.54967
▁जोड्ने	-9.54994
▁जलविद्युत्	-9.55108
▁कार्यान्वयनमा	-9.55136
▁परे	-9.5518
▁कार्यविधि	-9.55202
▁टन	-9.55205
▁कार्यदल	-9.55231
▁भाडा	-9.55234
सम्मको	-9.5525
▁उनीहरूको	-9.55429
▁भट्ट	-9.55438
▁कोरोनाका	-9.55556
▁लागत	-9.55577
▁बढ्दो	-9.55589
▁ग्रहण	-9.55704
▁खोजेको	-9.55754
▁बरामद	-9.55876
▁५७	-9.55939
▁मकवानपुर	-9.55952
▁मार्ग	-9.56013
▁सकेका	-9.56107
▁देखिने	-9.56145
▁तयारीमा	-9.56214
▁कञ्चनपुर	-9.56256
▁गरिन्	-9.56315
▁पुस्तक	-9.56341
▁वर्ग	-9.56409
▁पदक	-9.56451
▁खण्डमा	-9.56465
▁श्रीमती	-9.56472
▁जहाँ	-9.56482
▁ठेकेदार	-9.56489
दा	-9.56586
▁परम्परा	-9.56619
▁अत्यावश्यक	-9.56899
▁शुक्रवार	-9.56935
▁पिसिआर	-9.5694
▁दीपक	-9.56974
▁कोरोनाबाट	-9.57158
▁तथ्याङ्क	-9.57316
▁अरू	-9.5733
▁रमेश	-9.57357
▁स्वीकार	-9.57387
▁सेवन	-9.57564
▁सिँचाइ	-9.57649
▁सीमित	-9.57652
▁विश्वमा	-9.57749
▁सोमवार	-9.57791
▁कप	-9.57803
बीचको	-9.58038
▁सरुवा	-9.58054
▁व्यवसायीले	-9.58078
▁हिमाली	-9.5809
▁याउन	-9.58133
ना	-9.58182
▁भू	-9.58235
▁लागेर	-9.58279
▁कोरिया	-9.58335
▁४९	-9.58374
▁घटनाको	-9.58391
▁सदस्यता	-9.58459
▁खाद्यान्न	-9.58485
▁भावना	-9.58498
िङ	-9.58533
▁निम्ति	-9.58623
▁परिस्थिति	-9.58634
▁रियल	-9.58729
▁जुम्ला	-9.58753
▁सल्लाहकार	-9.58759
▁गणेश	-9.58823
▁सर्वाधिक	-9.58862
▁संख्यामा	-9.58969
स्	-9.59
▁जल	-9.59006
▁संस्थाले	-9.59024
▁गरिनेछ	-9.59072
▁आजै	-9.59169
▁रहन	-9.59209
▁करीब	-9.59343
▁भारी	-9.59493
▁नसके	-9.59511
▁आधारित	-9.59629
▁यसबाट	-9.59682
▁स्वाब	-9.59773
▁पर्न	-9.59785
▁स्वागत	-9.59831
▁दायित्व	-9.59862
▁मात्रामा	-9.59889
▁चालू	-9.59933
ज	-9.59945
नै	-9.59984
▁ख	-9.60035
▁वाग्मती	-9.60075
▁मध्यम	-9.60085
▁कठिन	-9.60144
▁६१	-9.60258
▁आरोपमा	-9.6032
▁पाए	-9.60335
ात्मक	-9.60416
▁लाग्यो	-9.60548
▁प्रचार	-9.60631
▁भएमा	-9.60644
▁प्रकाशन	-9.60672
▁बेलामा	-9.60677
▁जेल	-9.60747
▁नगरपालिकाको	-9.60779
▁हिमाल	-9.60808
▁भेटघाट	-9.60873
▁मूल्यमा	-9.60874
▁६२	-9.60883
▁टुंगो	-9.60883
▁उपाय	-9.60952
ेर	-9.60955
▁दिनसम्म	-9.60962
▁शिक्षण	-9.61029
▁कार्यसमिति	-9.61035
▁बिहीवार	-9.61047
▁रामचन्द्र	-9.61138
▁सेनाको	-9.61271
▁मन्त्रालयमा	-9.61276
▁आफैं	-9.61354
▁बाँके	-9.61361
▁समूहमा	-9.61458
▁सुनको	-9.61519
▁दुरुपयोग	-9.61564
▁६३	-9.61568
▁रुप	-9.61649
▁सक्छन्	-9.6168
▁संकेत	-9.61845
▁८५	-9.61863
▁भाइरसका	-9.62028
▁विश्वका	-9.62044
▁दोषी	-9.62045
▁हल	-9.62062
▁विज्ञ	-9.62091
▁चाहिँ	-9.62268
▁विक	-9.62271
▁हुँ	-9.62387
▁प्रारम्भिक	-9.62453
▁निकालेको	-9.62474
▁मोदी	-9.62498
▁नगरपालिकामा	-9.62535
जस्तै	-9.62568
▁चामल	-9.62601
▁गरिसकेका	-9.6267
▁उहाँको	-9.62678
▁आफैँ	-9.62763
▁आफूहरु	-9.62916
▁रहनेछ	-9.63051
▁भइसकेका	-9.63083
एमाले	-9.63125
▁परामर्श	-9.63182
▁तलब	-9.63243
▁बिते	-9.63281
▁उपस्थिति	-9.63317
▁सिन्धुपाल्चोक	-9.63415
▁पानीको	-9.63452
▁कपडा	-9.63458
▁सक्दैन	-9.63459
▁तालिका	-9.63475
▁६६	-9.63525
▁प्राथमिकतामा	-9.63658
▁रहेर	-9.63668
▁दिनुहोला	-9.63783
▁बासिन्दा	-9.63804
▁विपद्	-9.6389
▁कतै	-9.63956
▁पढाइ	-9.6396
▁राख्दै	-9.63982
▁केन्द्रको	-9.63987
▁साह	-9.64023
▁शनिवार	-9.64037
▁खेल्न	-9.64075
▁गएपछि	-9.64182
छन्	-9.64222
▁महसुस	-9.64261
▁स्मरण	-9.64329
जी	-9.64536
▁पुगे	-9.64551
▁सी	-9.64574
▁प्रेममा	-9.64583
▁प्रवद्र्धन	-9.64606
▁गरियो	-9.64649
▁दिनदेखि	-9.64731
▁ल्याएर	-9.64785
▁विप्लव	-9.64806
▁बालिका	-9.64824
▁माधवकुमा	-9.64942
▁नेताले	-9.64964
▁परराष्ट्र	-9.65184
▁निर्वाह	-9.652
▁श्रमिक	-9.65205
▁खटिएको	-9.65244
▁डेढ	-9.65271
▁देखिएपछि	-9.65535
▁शेर्पा	-9.65582
▁औद्योगिक	-9.65625
▁स्वर्ण	-9.65636
▁ठहर	-9.65648
▁त्यसै	-9.65854
▁लिखित	-9.65883
▁लागी	-9.65959
▁माथिल्लो	-9.65994
▁कमल	-9.65997
▁गर्नेछन्	-9.6607
▁गाह्रो	-9.66074
▁ग्यास	-9.66124
नाथ	-9.66209
▁कानूनी	-9.66215
▁नेपालगञ्ज	-9.66248
▁९५	-9.66414
▁ढुवानी	-9.66426
▁आइतवार	-9.66454
▁रेग्मी	-9.66472
▁रणनीति	-9.66879
▁मैदान	-9.66926
▁विद्युतीय	-9.67027
▁घरमै	-9.6708
▁खुलेको	-9.67115
▁एकजना	-9.67131
▁विरुद्धको	-9.67165
▁बजेदेखि	-9.67184
▁संसदमा	-9.67227
हरूमा	-9.67333
▁सेन्टर	-9.67341
▁विश्वकप	-9.6744
▁इलाम	-9.67453
▁बैतडी	-9.67463
▁माटो	-9.67473
▁७१	-9.67477
▁पशुपति	-9.67537
▁सहायता	-9.67742
▁द	-9.67746
▁तेल	-9.67816
▁दूध	-9.6787
▁दिनु	-9.67881
▁कार्यकाल	-9.67948
▁गोविन्द	-9.67972
▁अस्थायी	-9.68139
▁राजश्व	-9.6818
▁टिकट	-9.68202
▁भारतका	-9.68244
▁सञ्चालित	-9.68246
▁पूर्वी	-9.68287
▁दिनुभयो	-9.68306
▁ठक्कर	-9.68326
▁साधारण	-9.68508
▁नपाउने	-9.68573
▁भीम	-9.68641
▁मलेसिया	-9.68705
▁हालै	-9.68734
▁कैद	-9.68748
▁७४	-9.68792
▁नेताहरुले	-9.68854
ङ	-9.68973
▁परीक्षणमा	-9.69082
▁घाटा	-9.69249
▁प्रमाण	-9.69275
▁नसकिने	-9.69307
▁वटै	-9.69308
▁स्पेन	-9.69417
▁संक्रमितमध्ये	-9.69417
▁खण्ड	-9.69446
▁कार्ड	-9.69501
▁तापक्रम	-9.69643
▁बम	-9.69658
▁पर्वत	-9.69724
▁विजेता	-9.69743
▁आउँदा	-9.69752
रा	-9.69768
▁यहाँको	-9.69789
▁आचार्यले	-9.6982
▁बढिरहेको	-9.69902
▁समाजमा	-9.69927
▁बस्नेत	-9.69946
▁गोरखा	-9.69947
▁प्रक्रियामा	-9.69964
▁६७	-9.70061
▁चलाउन	-9.70089
▁हटाउन	-9.70125
▁मेला	-9.70155
०	-9.70173
▁बोकेर	-9.70219
▁अमेरिकाको	-9.7025
▁पछाडि	-9.70314
▁विश्वभर	-9.70324
▁दावी	-9.70338
▁साउदी	-9.70391
▁६८	-9.70487
▁महेन्द्र	-9.70497
▁नाफा	-9.70525
▁दशैँ	-9.70573
▁ब्राजिल	-9.70577
▁राजनीतिमा	-9.7066
▁क	-9.70819
▁लाभ	-9.70934
ब	-9.71104
▁राज्यको	-9.71268
▁मेयर	-9.71285
▁दर्शन	-9.71295
वा	-9.71325
▁बैंकिङ	-9.71328
▁सहयोगी	-9.71461
▁न्यूनीकरण	-9.71481
▁बराबरी	-9.71531
▁ज्ञवालीले	-9.71607
▁कम्पनीका	-9.71619
▁अभिभावक	-9.71699
▁२००	-9.71771
▁जोडिएको	-9.71773
▁अलपत्र	-9.71971
▁आधारभूत	-9.71988
▁छुट्टै	-9.72084
▁जोशी	-9.72158
▁पहिलोपटक	-9.72165
▁बाल	-9.72284
▁सिद्धान्त	-9.72355
▁बोर्ड	-9.72361
▁पुराना	-9.72361
▁मंगलवार	-9.72423
▁जिकिर	-9.72477
▁आयोगमा	-9.72496
राम	-9.72516
▁थाले	-9.7263
▁सञ्जालमा	-9.72656
▁अलि	-9.72778
▁देखिए	-9.7282
▁मिल्ने	-9.72863
ड	-9.72864
▁वैकल्पिक	-9.72916
▁कर्मचारीको	-9.72978
▁महासङ्घ	-9.72987
▁चुनावमा	-9.73042
▁हजारभन्दा	-9.73054
▁अवैध	-9.7307
▁आयोजनामा	-9.73149
▁उपयोग	-9.7329
▁तिन	-9.73391
▁कहिल्यै	-9.73514
▁जोगाउन	-9.73559
▁सजिलो	-9.73585
▁रामबहादुर	-9.73786
▁एमालेले	-9.73807
▁कर्मचारीलाई	-9.73846
▁कसैलाई	-9.73865
नी	-9.73882
▁जसरी	-9.73938
▁दश	-9.73947
▁यौन	-9.73948
▁असफल	-9.73987
▁हप्ता	-9.74043
▁बाढीले	-9.74085
▁सामूहिक	-9.74161
▁मनाङ	-9.74171
?	-9.74171
▁भेटवार्ता	-9.74171
▁अति	-9.74256
▁खासै	-9.74307
▁राना	-9.74327
▁मजदुर	-9.74355
▁क्षेत्रबाट	-9.74366
▁मेगावाट	-9.74413
▁शिव	-9.74506
▁पोजेटिभ	-9.74533
▁नेकपाको	-9.74569
▁राय	-9.7462
▁२०७८	-9.74637
▁व्यापक	-9.74685
▁एकताको	-9.74795
▁ग्राहक	-9.74854
▁५९	-9.74967
▁वैज्ञानिक	-9.74987
▁पुरुषको	-9.75037
▁ज्येष्ठ	-9.75122
▁शब्द	-9.75168
▁बाबुराम	-9.75216
▁गयो	-9.75219
▁सभामा	-9.75295
▁नवलपरासी	-9.75373
▁वर्षपछि	-9.75376
▁७८	-9.75441
▁एकल	-9.75456
▁आर्मी	-9.75491
▁हित	-9.75515
▁हाफ	-9.75532
▁नोट	-9.75543
▁पूर्वानुमान	-9.75664
▁मन्त्रिपरिषद्को	-9.75979
▁बस्दै	-9.76153
▁यद्यपि	-9.76153
▁क्वारेन्टाइनमा	-9.76158
▁परीक्षणका	-9.76199
▁७३	-9.76209
▁समयसम्म	-9.76312
▁प्रादेशिक	-9.76323
▁ग्रामीण	-9.76327
▁ट्रक	-9.76363
▁लेखेका	-9.76376
▁पीडा	-9.7647
▁प्रकारका	-9.76587
▁किलो	-9.76682
▁शहर	-9.767
▁अपनाउन	-9.76732
▁विश्वव्यापी	-9.76741
▁पुलिस	-9.76875
▁हुनसक्छ	-9.76889
▁प्रबन्ध	-9.77013
▁जनस्वास्थ्य	-9.77025
▁लैजान	-9.77032
▁म्याग्दी	-9.77141
ए	-9.77214
▁पठाउन	-9.773
▁उपेन्द्र	-9.77336
▁प्रथम	-9.77353
▁गुणस्तर	-9.77459
▁तथ्य	-9.77523
▁प्रकृति	-9.77589
▁आन्दोलनमा	-9.77658
▁दिल्ली	-9.77677
▁तीमध्ये	-9.77714
▁धनुषा	-9.77829
▁लामिछाने	-9.78001
▁सडकको	-9.78096
▁आधुनिक	-9.78156
▁आर्जन	-9.78205
▁उद्योगी	-9.78211
▁दफा	-9.78249
▁प्रतितोला	-9.78415
▁बार	-9.78464
ली	-9.78605
▁चुनावी	-9.78646
▁झन्	-9.78667
▁बस्नेतले	-9.78714
▁किसानलाई	-9.78775
▁थुप्रै	-9.78787
▁तरिकाले	-9.78848
▁दिनभित्र	-9.78856
▁बाटोमा	-9.78994
▁दर्शक	-9.79015
▁त्यतिबेला	-9.79068
▁रिजाल	-9.79069
▁आपत्ति	-9.79137
▁उन	-9.79229
१	-9.79244
▁कार्यमा	-9.79317
▁जिम्मेवार	-9.79352
▁नियमावली	-9.7946
▁नष्ट	-9.79506
▁इजलासमा	-9.7968
▁स्वास्थ्यमा	-9.7971
▁बार्सिलोना	-9.79776
▁ईश्वर	-9.79853
▁फ्रान्स	-9.79909
पूर्वक	-9.79912
▁छिट्टै	-9.79926
▁चलिरहेको	-9.79976
▁अत्यधिक	-9.79985
▁पुरा	-9.80047
▁क्रमशः	-9.80049
▁फोटो	-9.80083
▁दुर्गा	-9.801
▁तल	-9.80175
▁पत्रिका	-9.80245
▁यसपटक	-9.80315
▁सतर्कता	-9.80333
▁उपलब्धि	-9.80346
▁महामन्त्री	-9.80369
▁दिएपछि	-9.8039
सी	-9.8044
युक्त	-9.80463
▁मानसिक	-9.80509
▁सल्लाह	-9.80533
▁निर्धारित	-9.80604
▁बसोबास	-9.807
सँगको	-9.80711
के	-9.8072
▁विमानस्थलमा	-9.80772
▁चलाउने	-9.80785
▁अभिनय	-9.80828
▁बुद्ध	-9.81053
▁भइ	-9.81133
▁युवराज	-9.81251
▁मौका	-9.81286
▁बंगलादेश	-9.81289
▁९२	-9.8132
▁हार	-9.81493
▁चिनी	-9.81504
▁संवाद	-9.81573
▁राज्यले	-9.81607
▁कारोवार	-9.81618
▁शाहीले	-9.8165
▁रुपैयाँमा	-9.81684
▁उपप्रमुख	-9.81777
▁श्री	-9.82063
▁दिइने	-9.8207
▁प्रयोगशाला	-9.82077
▁आशंका	-9.82081
▁आत्महत्या	-9.82137
▁सहसचिव	-9.82146
▁मानिन्छ	-9.82263
▁लिइएको	-9.82403
▁उदाहरण	-9.82446
▁ढिलाइ	-9.82462
▁राप्रपा	-9.82503
▁क्यान्सर	-9.82515
▁मासिक	-9.82655
▁सके	-9.82683
▁सिट	-9.82738
▁प्रतिनिधित्व	-9.8274
▁जमिन	-9.82748
▁दिनअघि	-9.82767
गत	-9.82794
▁चाँदी	-9.82816
▁बुँदे	-9.82903
▁सुनाए	-9.82933
▁उपचारमा	-9.82955
▁सुशासन	-9.82957
▁तराई	-9.82962
▁प्रतिवेदनमा	-9.83037
▁थिएनन्	-9.83173
▁समीक्षा	-9.83214
▁याएको	-9.83302
▁साथी	-9.83385
▁देखियो	-9.83394
▁जानु	-9.83434
▁मेसिन	-9.83522
▁पक्षको	-9.83588
▁सुरेन्द्र	-9.83712
▁जोशीले	-9.83756
▁सन्तोष	-9.83762
▁९९	-9.8388
मान	-9.83953
▁पाकिस्तान	-9.83984
▁संघले	-9.84116
▁बोलाइएको	-9.84136
प्रान्त	-9.84264
▁७९	-9.84267
▁रूपैयाँ	-9.8434
▁मिडिया	-9.84361
▁मिलाउन	-9.84457
▁प्रष्ट	-9.84474
▁संस्थाको	-9.84593
▁बिना	-9.84739
▁व्यापारी	-9.84839
▁लघुवित्त	-9.84921
▁बुझ्न	-9.84922
▁सत्य	-9.84967
▁उसको	-9.8498
▁एम्बुलेन्स	-9.84996
▁अवलोकन	-9.85031
▁९१	-9.85131
▁किसिमको	-9.8516
▁अस्वीकार	-9.85161
▁एयर	-9.85164
इ	-9.85176
▁बोर्डले	-9.85188
▁ब्याज	-9.85235
▁परिसूचक	-9.8525
आइसोलेसनमा	-9.85326
▁पेट्रोलियम	-9.85349
▁महाधिवेशनमा	-9.85364
▁बा	-9.85373
▁लक्ष्मी	-9.85493
▁विपरीत	-9.85574
▁क्षेत्रफल	-9.85698
▁अवार्ड	-9.85794
▁८६	-9.85803
▁चलन	-9.85809
▁दिनेश	-9.85858
▁सिमेन्ट	-9.85942
▁अर्थात	-9.86094
▁विभागको	-9.86129
▁चाहना	-9.8613
▁समृद्धि	-9.86139
▁विस्तृत	-9.86141
▁रगत	-9.8628
▁कतार	-9.8639
▁बनाई	-9.86408
▁भट्टले	-9.86409
▁मानवीय	-9.8642
▁एण्ड	-9.86424
▁सुन्दर	-9.86482
▁विकासमा	-9.86493
▁कार्यालयको	-9.86568
▁माध्यम	-9.86595
▁नक्सा	-9.8663
▁डर	-9.8668
▁समायोजन	-9.86709
▁कार्तिक	-9.86731
▁एमसीसी	-9.86745
▁भदौं	-9.86801
▁शून्य	-9.86815
▁इन्टरनेट	-9.86826
▁मृत	-9.86829
▁सरोकारवाला	-9.86943
▁खत्री	-9.86957
▁लागु	-9.86961
▁महासंघले	-9.86996
▁तिहार	-9.87098
▁आधिकारिक	-9.87127
▁दूतावास	-9.87145
▁तल्लो	-9.87165
▁मङ्सिर	-9.87175
▁ज्वरो	-9.87179
▁स्वार्थ	-9.87196
या	-9.87197
▁हक	-9.87204
▁एसिया	-9.8721
▁विश्लेषण	-9.87251
▁हेरेर	-9.87282
▁छोटो	-9.87288
▁सुनिश्चित	-9.87349
▁अमेरिकाले	-9.87353
▁फूल	-9.87423
▁उत्तम	-9.87499
▁२०७२	-9.87558
▁मद्दत	-9.87645
▁आइरहेको	-9.87687
▁ज्ञानेन्द्र	-9.87704
▁निवासी	-9.87766
▁उखु	-9.87778
▁रेकर्ड	-9.87791
▁झलनाथ	-9.87826
▁प्रकारको	-9.8783
▁गराउँदै	-9.87841
▁स्कुल	-9.87853
▁हतियार	-9.87853
▁प्रतियोगिताको	-9.87857
▁तहले	-9.87928
▁जन्म	-9.87961
▁अभियानमा	-9.87987
▁गराइएको	-9.88014
▁६९	-9.88133
▁८४	-9.88238
▁पार	-9.88252
▁प्रविधिको	-9.88291
▁समृद्ध	-9.88323
▁८२	-9.88414
▁कमजोरी	-9.88471
▁धरान	-9.88625
▁उड्डयन	-9.88634
▁प्रतिनिधिसभाको	-9.88826
▁मासु	-9.88838
▁रौतहट	-9.88841
▁जनकपुर	-9.89003
ौं	-9.89095
▁पर्सा	-9.89226
▁प्रहरीका	-9.89322
▁देशलाई	-9.89339
▁रोपनी	-9.89437
▁वडामा	-9.89591
▁फोहोर	-9.89605
▁जटिल	-9.89637
▁महर्जन	-9.89638
▁भनिन्छ	-9.89654
▁संगीत	-9.89657
▁९६	-9.89715
▁सवारीसाधन	-9.89847
▁दलले	-9.8989
▁पारिश्रमिक	-9.89893
प्रधानमन्त्री	-9.89907
▁सुरुङ	-9.89988
▁ओभरमा	-9.90054
▁दर्जन	-9.90069
▁गल्ती	-9.90111
▁मध्य	-9.90166
▁चाप	-9.90166
▁डिग्री	-9.90237
▁घिमिरेले	-9.9027
▁चल्ने	-9.90298
▁महानिर्देशक	-9.90349
▁यतिबेला	-9.90481
▁युद्ध	-9.90558
▁संविधानले	-9.90665
▁नारा	-9.90677
▁८३	-9.90711
डी	-9.90732
▁पुँजी	-9.9079
▁संघीयता	-9.90862
▁हिमपात	-9.90953
▁चिकित्सा	-9.91023
▁पारेर	-9.91038
▁तपाईको	-9.91053
▁प्रिमियर	-9.91057
▁जान्छ	-9.91081
▁चर्चित	-9.9114
िन	-9.91204
▁विभेद	-9.91227
▁भक्तपुरमा	-9.91268
▁लिटर	-9.91304
▁ब्याटिङ	-9.91456
▁द्वन्द्व	-9.91528
▁दिगो	-9.91568
▁चौकी	-9.91624
▁चरण	-9.91749
▁घिमिरे	-9.91847
▁प्रशासकीय	-9.91882
▁मदन	-9.91967
▁हस्तक्षेप	-9.92011
▁अलग	-9.92116
▁सिजन	-9.9213
▁हकमा	-9.92138
▁पशु	-9.92275
▁८७	-9.92345
▁सेवाग्राही	-9.92422
▁भेट्न	-9.92485
▁घटनास्थल	-9.92529
▁गर्छु	-9.92554
▁सूचीमा	-9.92647
▁परिवारको	-9.92663
▁चलेको	-9.92665
५	-9.927
▁महोत्सव	-9.92703
▁८८	-9.92751
▁बढाइएको	-9.92754
▁धादिङ	-9.92777
▁भ्याक्सिन	-9.92784
▁कुटपिट	-9.9283
▁अगाडी	-9.92841
▁सहजीकरण	-9.92921
▁ठीक	-9.92953
:	-9.93007
▁शंकर	-9.9302
▁सङ्गठन	-9.93086
▁टाढा	-9.93137
▁अन्नपूर्ण	-9.93182
▁दुईवटा	-9.93248
▁सगरमाथा	-9.93276
▁असंवैधानिक	-9.93369
▁खरिददर	-9.93445
▁स्पष्टीकरण	-9.93535
▁सुवास	-9.93598
▁धन्यवाद	-9.93617
▁फलफूल	-9.93628
▁मङ्गलबार	-9.93665
▁ने	-9.9372
▁राखी	-9.93756
▁कर्मचारीले	-9.93766
▁खेलेको	-9.93788
▁शरीरमा	-9.93796
▁राउत	-9.93873
▁सम्पर्कमा	-9.93932
▁निमित्त	-9.9397
▁निर्णायक	-9.93975
▁पुनःनिर्माण	-9.93992
▁संस्थान	-9.94005
▁बेड	-9.94026
▁बजेटमा	-9.94037
▁हातमा	-9.94047
▁चीनमा	-9.94109
▁नपर्ने	-9.94118
▁दिँदा	-9.94133
▁राम्रा	-9.94261
अघि	-9.94443
▁एन्ड	-9.94444
▁देख्न	-9.94466
▁रातो	-9.94496
२	-9.94623
▁भूभाग	-9.94631
▁अफगानिस्तान	-9.94667
▁तीनै	-9.94669
▁गर	-9.94761
▁मुलुकका	-9.94914
▁रहँदा	-9.9498
ुपर्ने	-9.95
▁प्रोत्साहन	-9.95014
▁अधिकतम	-9.95033
▁९३	-9.95144
▁बोलाएको	-9.95171
▁गरिब	-9.95184
▁सम्पदा	-9.95187
▁लागे	-9.95194
▁कालो	-9.95211
▁किशोरी	-9.95227
▁२०२१	-9.95241
▁मे	-9.9526
▁मण्डल	-9.95382
▁ल्याएका	-9.95405
▁समाप्त	-9.95406
अ	-9.95478
▁अतिरिक्त	-9.95499
▁मुस्ताङ	-9.9555
▁बाघ	-9.95604
▁उपत्यकाका	-9.95632
▁८१	-9.95656
▁पुनले	-9.95691
▁संयोजकत्वमा	-9.95705
▁पढ्न	-9.95714
▁आरोहण	-9.95761
▁पाटन	-9.95765
▁स्टार	-9.95769
समक्ष	-9.95777
▁भीड	-9.95823
▁डिजिटल	-9.9594
▁महाकाली	-9.95994
▁अभियोगमा	-9.96154
▁बिरुवा	-9.96189
▁प्रालि	-9.96272
▁प्रकट	-9.96297
▁विकसित	-9.96408
▁निकायले	-9.96408
▁नेताहरू	-9.96424
▁पारेका	-9.96513
▁आकर्षण	-9.96572
▁मनाउन	-9.96634
▁सस्तो	-9.96728
▁आवास	-9.96783
▁दिइन्	-9.96846
▁सरकारबाट	-9.9689
मार्फत्	-9.96906
▁शुभ	-9.96912
विहीन	-9.97019
माओवादी	-9.97059
▁सीप	-9.97069
▁जबरा	-9.97193
▁८९	-9.97237
ण	-9.97337
▁वीरगञ्ज	-9.97345
▁माछा	-9.9735
▁९८	-9.97442
▁युनाइटेड	-9.97533
▁खोपको	-9.97573
▁चन्द्र	-9.97576
▁पर	-9.97581
▁कसैको	-9.97612
▁आयोजनाले	-9.97639
▁सांसदहरु	-9.97645
▁अडान	-9.97652
▁प्रमाणपत्र	-9.9768
▁हैन	-9.97713
▁संस्कार	-9.97724
▁सांसदले	-9.97726
▁हेक्टर	-9.97768
▁उता	-9.97772
▁देखिन	-9.97786
▁कामहरु	-9.97907
▁पारी	-9.97916
▁डिस्चार्ज	-9.97942
▁क्रियाकलाप	-9.98033
▁पश्चिमी	-9.98176
▁समझदारी	-9.98178
▁गणना	-9.98182
▁विस्थापित	-9.98235
▁टेलिभिजन	-9.98308
▁गतिमा	-9.98342
▁पटकपटक	-9.98384
▁चाँडै	-9.98412
▁खालको	-9.98464
▁गाई	-9.98492
▁संयन्त्र	-9.98506
▁सहर	-9.98516
▁खोल्न	-9.98517
▁विश्वकर्मा	-9.98522
▁सन्तान	-9.98534
▁कास्की	-9.98575
▁सुन्तला	-9.98577
▁भेटिएका	-9.98594
▁बढेपछि	-9.98636
▁जितेको	-9.98648
▁निर्वाचनको	-9.98674
▁घटे	-9.98754
▁पर्दा	-9.98858
▁सुरक्षाका	-9.98891
▁सु	-9.98901
▁व्यक्तिहरु	-9.98934
▁काँग्रेस	-9.99005
▁कृष्णप्रसाद	-9.99077
▁बहादुर	-9.99111
▁बचाउन	-9.99125
सा	-9.99144
▁रह्यो	-9.99163
▁नक्कली	-9.99192
▁गुट	-9.99206
▁उत्पादनमा	-9.9921
▁यसबारे	-9.99215
▁थपिएको	-9.99215
▁समाधानका	-9.99313
▁विशाल	-9.9935
▁सफाइ	-9.99362
▁क्षमताको	-9.99366
द	-9.99405
▁वर्षभित्र	-9.9945
▁खपत	-9.99467
▁बच्न	-9.99468
▁महिलाले	-9.99479
▁संविधानमा	-9.99557
कुमारी	-9.99631
▁रहन्छ	-9.99829
▁मिश्र	-9.9983
▁बनाउँदै	-9.99875
▁नामक	-9.99877
▁बन्दाबन्दी	-9.99905
▁जसमध्ये	-9.99962
▁बरु	-9.99979
▁गरिबी	-9.99989
▁अर्जुन	-10.0014
▁कक्ष	-10.0017
▁प्रकोप	-10.0019
▁महिनादेखि	-10.0019
▁२०१९	-10.0019
▁हटाउने	-10.0026
▁रिक्त	-10.0034
▁बैठकको	-10.0036
▁बालबालिकालाई	-10.004
▁सभाको	-10.0043
▁करणी	-10.0052
▁प्रणालीमा	-10.0052
▁न्यायिक	-10.0053
▁योजनामा	-10.0057
▁संचालन	-10.0063
टी	-10.0063
▁९४	-10.0089
▁भेन्टिलेटर	-10.0097
▁परिवारले	-10.011
▁परेर	-10.0111
▁भोट	-10.0114
▁गुणस्तरीय	-10.0115
▁सहुलियत	-10.0117
▁मुख	-10.0119
▁महासंघका	-10.0125
▁सम्पादन	-10.0126
▁अन्तरिम	-10.0129
▁खटिएका	-10.013
▁अर्यालले	-10.014
▁बुझाएको	-10.0149
▁बेनी	-10.0151
▁रात	-10.0168
▁कर्तव्य	-10.0177
▁ज्ञवाली	-10.0195
▁पालिका	-10.0204
▁अध्यक्षतामा	-10.0205
▁जनसङ्ख्या	-10.0207
▁थपे	-10.0209
▁बोहरा	-10.0215
▁नवीकरण	-10.0216
▁घरबाट	-10.0224
▁पुग्यो	-10.0232
▁भेरी	-10.0238
▁पूरै	-10.024
▁बलमा	-10.0243
▁एन्फा	-10.0243
हा	-10.0251
▁बिरामीलाई	-10.0253
▁टेलिकम	-10.0257
▁स्वतन्त्रता	-10.0261
▁खोज्ने	-10.0264
मुक्त	-10.0268
▁सधैँ	-10.0269
▁लेखा	-10.0277
▁पुस्ता	-10.0282
▁कविता	-10.0298
▁बलिउड	-10.0298
▁कटान	-10.03
▁नरेन्द्र	-10.0308
्य	-10.031
▁आउट	-10.0311
ग	-10.0312
▁खडा	-10.0315
▁आसपास	-10.0318
▁महरा	-10.0321
▁सालको	-10.0321
▁उपधारा	-10.0323
▁प्रशस्त	-10.0324
▁छैन्	-10.0327
▁९७	-10.0334
▁असन्तुष्टि	-10.0334
▁त्रास	-10.0353
▁मञ्च	-10.0355
▁रंगशाला	-10.0355
▁चर्को	-10.0367
▁मनाउने	-10.0377
▁अल	-10.0388
▁तिर्न	-10.0389
▁गरिए	-10.039
▁भारतसँग	-10.0396
▁पर्दैन	-10.0403
▁सवार	-10.0407
▁पार्क	-10.0408
▁प्रहरीलाई	-10.041
▁लेखक	-10.0419
▁ललितपुरमा	-10.042
▁विपन्न	-10.0423
▁सुरुवात	-10.0424
▁विकासको	-10.0431
▁एकीकरण	-10.0435
▁छाला	-10.0445
▁आकर्षित	-10.0448
▁कस	-10.0449
▁दरबार	-10.045
▁व्यस्त	-10.0455
▁बने	-10.0463
▁बराल	-10.0468
▁सिरिज	-10.0472
▁वन्यजन्तु	-10.0475
▁स्तरोन्नति	-10.0481
▁नकारात्मक	-10.0481
▁शारीरिक	-10.0483
▁ताप्लेजुङ	-10.0485
▁एयरलाइन्स	-10.0496
▁सचेतक	-10.0501
▁आयोजनाका	-10.0519
▁नागरिकले	-10.0521
मूलक	-10.0523
▁प्याकेज	-10.0525
▁दिनुपर्छ	-10.0527
▁सरसफाइ	-10.0531
▁महिनासम्म	-10.0539
▁नदिएको	-10.0543
▁रहेकोछ	-10.0544
▁पर्नेछ	-10.0548
▁निर्माणाधीन	-10.0557
▁व्यवस्थापनमा	-10.0565
▁छाडेर	-10.0579
▁कार	-10.0583
नारायण	-10.0583
▁किरण	-10.0599
▁मह	-10.0604
▁उचाइ	-10.0606
▁खसेको	-10.0619
▁जीवनमा	-10.0622
▁साझेदारी	-10.063
▁शपथ	-10.0636
▁जितेर	-10.0638
▁झनै	-10.0639
▁अध्ययनमा	-10.0645
▁बताएकी	-10.0655
▁कालोपत्र	-10.0662
▁महिनाभित्र	-10.0663
▁बादल	-10.0665
िएको	-10.0665
▁व्याख्या	-10.0684
▁पोखरी	-10.0686
▁सिरहा	-10.0691
▁स्वदेशी	-10.0692
▁बचत	-10.0693
ओ	-10.0699
▁परेपछि	-10.0701
▁मनसुन	-10.0702
▁श्रेष्ठको	-10.0702
▁पर्दछ	-10.0705
▁जाँदै	-10.0708
▁सदन	-10.071
▁सङ्क्रमणको	-10.071
▁प्रयोगशालामा	-10.071
▁लमजुङ	-10.0711
▁मूल्यांकन	-10.0711
▁समृद्धिको	-10.0713
▁उपचारपछि	-10.0716
▁दरबन्दी	-10.0717
▁सावधानी	-10.0721
▁राप्ती	-10.0723
▁भन्नु	-10.0725
▁रिलिज	-10.0732
▁नमिल्ने	-10.0732
▁अनुमोदन	-10.0742
▁मन्दिरमा	-10.0745
▁तत्कालै	-10.0746
▁दियो	-10.0748
▁कुखुरा	-10.0754
▁पेट्रोल	-10.0756
▁निकास	-10.0756
ह	-10.0762
▁जलवायु	-10.0773
▁भूभागमा	-10.0789
▁यसो	-10.0799
▁तनाव	-10.0804
▁अनेक	-10.0805
▁पावर	-10.0825
▁बर्ष	-10.0825
▁गायक	-10.0828
▁आइसोलेशन	-10.084
▁शिलान्यास	-10.084
▁साविक	-10.0841
▁स्रोतका	-10.0842
▁व्यापारमा	-10.0843
▁आकस्मिक	-10.0844
▁देव	-10.0845
▁क्षेत्री	-10.0846
▁राज	-10.0846
▁अथवा	-10.0853
▁बनाउनुपर्ने	-10.0856
▁एजेन्सीको	-10.0869
▁बनाउनु	-10.087
▁आबद्ध	-10.087
▁मौलिक	-10.0879
▁ब	-10.0891
▁बी	-10.0891
▁नपाएको	-10.0894
▁जानुपर्ने	-10.0903
▁जुनसुकै	-10.0907
▁अरब	-10.0915
डा	-10.0919
▁वायु	-10.0926
▁कसले	-10.093
▁पो	-10.0936
▁जातीय	-10.0944
▁स्याउ	-10.0944
▁खोलामा	-10.0947
स्तरीय	-10.095
▁लगाउँदै	-10.095
▁सञ्चालनका	-10.0954
▁संसदको	-10.0958
▁पर्नेमा	-10.0959
▁आवतजावत	-10.096
▁बर्दिया	-10.0965
▁देवकोटा	-10.0978
▁जन	-10.0984
▁नीतिगत	-10.0986
▁लेखिएको	-10.099
▁पाएपछि	-10.0992
▁२०१८	-10.0995
लगत्तै	-10.1001
▁विरोधमा	-10.1006
▁आउनु	-10.101
▁युनियन	-10.1021
▁महाशाखाका	-10.1026
▁लिमिटेड	-10.1033
▁भ्रम	-10.1035
▁अभावमा	-10.1043
४	-10.1045
▁देखा	-10.1052
▁ठप्प	-10.1062
"	-10.1063
▁एक्लै	-10.1064
▁फेसबुक	-10.1066
▁जोडेर	-10.1068
▁रेडियो	-10.107
▁किनभन	-10.1076
चन्द्र	-10.1083
▁व्यावसाय	-10.1083
एको	-10.1085
▁परिसर	-10.1087
ीत	-10.1089
▁जात	-10.109
▁जात्रा	-10.1091
जा	-10.1093
▁इच्छा	-10.1096
▁प्र	-10.1096
▁उल्लंघन	-10.1097
ौँ	-10.1104
▁चोट	-10.1106
▁अपिल	-10.1108
▁शंका	-10.1112
▁प्रमाणित	-10.1124
▁बीउ	-10.1125
▁अभिनेत्री	-10.1131
▁डिसेम्बर	-10.1133
▁पुरानै	-10.1137
▁फल	-10.1149
▁भविष्य	-10.115
▁जसका	-10.1157
▁जागेश्वर	-10.1159
▁कोभिड१९	-10.1165
▁व्यापारिक	-10.117
▁बेलुका	-10.1173
▁खाता	-10.1177
▁दार्चुला	-10.1183
▁लगत्तै	-10.1188
▁कार्यक्रमको	-10.119
▁पाठक	-10.12
▁वि	-10.12
▁प्रतिपक्ष	-10.12
▁प्रशासनिक	-10.1209
▁वायुसेवा	-10.1217
ध	-10.1227
▁कोषमा	-10.123
▁लाग्दा	-10.1233
▁सि	-10.1244
▁उत्पादित	-10.1252
▁आई	-10.1253
▁हुनेमा	-10.1254
भित्रै	-10.1264
▁भर्चुअल	-10.1266
▁राजपा	-10.1272
▁पत्नी	-10.1273
▁आफूहरुले	-10.1273
▁सकेनन्	-10.1277
▁पर्	-10.1281
▁चाहिने	-10.1288
▁हौं	-10.129
▁प्रयोजन	-10.1292
▁झा	-10.1295
▁जसको	-10.13
▁उत्ति	-10.1302
▁निर्देशनालय	-10.1305
▁नेगेटिभ	-10.1313
▁निर्देशिका	-10.1321
▁संघको	-10.1322
▁आक्रोश	-10.1327
▁दलहरु	-10.1331
▁गर्दछन्	-10.134
▁समस्यामा	-10.1343
▁चाहेको	-10.1344
▁बुझाइ	-10.1348
▁विशेषज्ञ	-10.1349
▁गोपाल	-10.1355
▁सुरुमा	-10.1361
▁कार्ययोजना	-10.1373
लो	-10.1375
▁रोजगारीमा	-10.1378
▁त्रिवि	-10.1393
▁कपिलवस्तु	-10.1395
▁अत्यन्त	-10.1396
▁टाउको	-10.1399
▁तस्बिर	-10.14
▁लगिएको	-10.1403
▁बारा	-10.1406
▁परम्परागत	-10.1414
▁उपाध्याय	-10.1418
▁खोल्ने	-10.1427
▁मधेस	-10.1427
▁३००	-10.1429
▁अभिनेता	-10.1433
▁पोष्ट	-10.1434
▁पर्यटकको	-10.1437
▁उत्तरी	-10.1439
▁मेट्रिक	-10.1441
▁मिल	-10.1445
▁ताल	-10.1452
▁सुदृढ	-10.1454
▁प्रा	-10.1455
▁मुम्बई	-10.147
▁हुम्ला	-10.1473
▁दिलाए	-10.1481
▁कूटनीतिक	-10.1482
▁ब्याजदर	-10.1482
▁नारायणी	-10.1483
▁संस्थाका	-10.1484
▁वर्षे	-10.1491
▁जलविद्युत	-10.1497
▁गर्दछु	-10.1498
▁अवधारणा	-10.15
▁उपप्रधानमन्त्री	-10.1501
▁टीका	-10.1501
▁अस्ट्रेलिया	-10.1505
▁किसिमका	-10.1506
▁सञ्चारमाध्यम	-10.1506
▁अभिवृद्धि	-10.1506
थ	-10.1508
▁स्थानीयवासीले	-10.1518
▁मनग्ग	-10.1519
▁हिउँ	-10.1521
▁पत्रमा	-10.1532
▁सडकखण्ड	-10.1537
▁संक्रमणका	-10.1539
▁केजी	-10.155
▁राजकुमार	-10.1553
▁कार्यक्रमका	-10.1553
▁सङ्कट	-10.1558
▁पाँचथर	-10.1558
▁चाडपर्व	-10.1572
▁सुत्केरी	-10.1577
▁बालुवा	-10.1577
▁दीर्घकालीन	-10.1587
▁विदेशबाट	-10.1587
पा	-10.159
▁रूप	-10.159
संग	-10.1592
श	-10.1602
▁सम्भावित	-10.1602
▁आलु	-10.1603
▁हावा	-10.1608
▁जर्मनी	-10.1609
▁पाल्पा	-10.1609
▁सामान्यतया	-10.161
▁हौँ	-10.1611
▁त्यहाँका	-10.1616
▁मोहन	-10.1619
▁सैन्य	-10.1624
▁सारा	-10.1624
▁त्यसकारण	-10.1629
▁नगरे	-10.1629
▁देखिँदैन	-10.1635
▁भन्छिन्	-10.1637
▁कटौती	-10.165
▁दिनपछि	-10.1651
▁जनवरी	-10.1654
▁निर्माता	-10.1663
▁विनोद	-10.1666
▁खोटाङ	-10.167
▁समाजवाद	-10.1672
▁निगमको	-10.1672
▁निगम	-10.1673
▁दोब्बर	-10.1676
▁महन्थ	-10.1677
▁भवनमा	-10.1678
▁पोखरामा	-10.168
ती	-10.1681
▁कोठा	-10.1689
▁ओलीसँग	-10.1692
▁खेलाडीलाई	-10.1694
▁सँगै	-10.1696
▁लागतमा	-10.17
पी	-10.1702
▁किशोर	-10.1706
▁व्यवसायमा	-10.1706
▁क्वारेन्टाइन	-10.1707
▁देवी	-10.1708
▁सदस्यहरू	-10.171
▁चाहन्छु	-10.1717
▁उप	-10.1725
▁सांसदहरुले	-10.1725
▁भन्यो	-10.173
▁रुख	-10.1737
▁इ	-10.1744
▁लिई	-10.1746
▁लगानीमा	-10.1751
▁पदबाट	-10.1753
▁प्रसाद	-10.1755
▁हाउस	-10.1755
▁प्रयत्न	-10.1755
▁मिल्दैन	-10.1769
▁राज्यमन्त्री	-10.1773
▁रोल्पा	-10.1773
▁भेटमा	-10.1775
▁२०७३	-10.1776
▁क्षतिपूर्ति	-10.1782
▁चेक	-10.1787
▁फर्किए	-10.1803
▁महानगरपालिकाले	-10.1807
▁सत्र	-10.1808
▁ओरालो	-10.1809
▁नारायणकाजी	-10.1809
▁लगभग	-10.1813
▁अनियमितता	-10.1822
▁उमेरमा	-10.1822
▁स्वरुप	-10.1825
▁तौल	-10.1837
▁सेवामा	-10.1837
▁श्रीमान	-10.1838
▁बाली	-10.1841
▁भिसा	-10.1845
िय	-10.1846
▁नहर	-10.1878
सहितका	-10.1879
▁वामदेव	-10.1882
▁भर	-10.1883
▁डोटी	-10.1885
▁मन्त्रिपरिषद	-10.1888
▁बदर	-10.1902
▁झडप	-10.1903
▁आकर्षक	-10.1903
▁धमाधम	-10.1905
▁रसुवा	-10.1906
▁पराजुली	-10.1906
३	-10.1909
▁निरीक्षण	-10.1909
▁मध्यनजर	-10.1916
▁व	-10.1919
▁लिभरपुल	-10.192
▁ऊ	-10.1927
▁भाइ	-10.193
▁कब्जा	-10.193
▁शक्तिशाली	-10.193
▁रुपैयाँको	-10.1932
▁पेशा	-10.1932
▁विज्ञापन	-10.194
▁बुढा	-10.1945
साथ	-10.1955
▁कालोपत्रे	-10.1957
▁बाह्य	-10.1963
▁फिल्ममा	-10.1969
▁पठनपाठन	-10.1971
▁कल्पना	-10.1971
▁पृथ्वी	-10.1976
▁साहले	-10.1977
▁डिजाइन	-10.1978
▁पारिएको	-10.1982
▁तर्फ	-10.1991
▁ढोका	-10.1992
▁अखिल	-10.1999
▁लिनुपर्ने	-10.2
▁ठगी	-10.2005
▁डोनाल्ड	-10.2011
रो	-10.2013
▁क्याम्पस	-10.2017
▁समारोहमा	-10.2019
▁बराबरीमा	-10.202
▁फर्किने	-10.2033
▁जबरजस्ती	-10.2042
▁गाउँका	-10.2042
च	-10.2043
▁भेन्टिलेटरमा	-10.2054
▁मदिरा	-10.2057
▁माध्यमिक	-10.2062
▁आय	-10.2065
▁निकासी	-10.2066
▁संविधानसभा	-10.2066
▁अनावश्यक	-10.2068
▁चाहने	-10.207
▁खालका	-10.2078
▁कायमै	-10.208
▁थारु	-10.2099
▁रुकुम	-10.2102
▁फोहर	-10.2102
▁संस्थामा	-10.2105
▁उपहार	-10.2106
रु	-10.2108
▁खानेकुरा	-10.2112
▁सिफारिसमा	-10.2114
▁ओलम्पिक	-10.2116
▁साथमा	-10.212
▁मूर्ति	-10.2125
▁लागुऔषध	-10.2128
▁स्याङ्जा	-10.2128
▁गतेबाट	-10.2128
ाई	-10.2128
▁तस्वीर	-10.2132
▁टोल	-10.2145
▁घरको	-10.2148
देवी	-10.215
परराष्ट्रमन्त्री	-10.2156
▁मापन	-10.2157
▁ला	-10.2159
▁मुटु	-10.216
▁छोराछोरी	-10.2163
ौ	-10.2167
▁बेवास्ता	-10.2177
▁बोल्न	-10.2179
▁विविध	-10.2179
▁गर्यो	-10.218
▁प्राध्यापक	-10.2183
▁हाराहारीमा	-10.2189
▁कार्यालयबाट	-10.2195
▁उत्पादक	-10.2199
▁व्यास	-10.2201
▁मानिएको	-10.2209
▁शहरी	-10.2212
▁सह	-10.2216
▁कामना	-10.2216
▁किन्न	-10.2218
▁शिखर	-10.2221
▁व्यवस्थापनका	-10.2222
▁लाखभन्दा	-10.2226
▁नेताहरूले	-10.2228
▁निगरानी	-10.223
▁फर्कने	-10.2239
▁डडेल्धुरा	-10.2239
▁स्वयं	-10.2242
▁प्रचलन	-10.2246
▁शिशु	-10.2247
पुर	-10.2252
▁केसीको	-10.2253
▁पारिवारिक	-10.226
▁नुवाकोट	-10.2261
▁निक्षेप	-10.2268
▁देखेर	-10.2271
▁झन्डै	-10.2281
▁सर्लाही	-10.2281
▁कुकुर	-10.2284
▁ठोस	-10.2287
▁अपहरण	-10.2288
टा	-10.2299
▁काठ	-10.23
▁नामावली	-10.2301
▁जाजरकोट	-10.2302
▁प्रतिरोध	-10.2305
▁विस्तारै	-10.2305
▁आनन्द	-10.2317
▁छानविन	-10.2331
▁उठाउन	-10.2332
▁मसान्तसम्म	-10.2332
▁विद्यार्थीको	-10.2344
▁जाडो	-10.2344
▁बन्यो	-10.2345
▁बढि	-10.2346
▁राजेश	-10.2348
▁विपक्ष	-10.2351
▁खासगरी	-10.2351
▁थाल्यो	-10.2352
▁देखाउन	-10.2352
▁कडाइ	-10.2362
▁भण्डारण	-10.2362
▁निर्मला	-10.2369
▁बिल	-10.237
▁रोगको	-10.2374
▁पहिरा	-10.2379
▁कार्यतालिका	-10.2387
▁रोनाल्डो	-10.2387
▁एसियाली	-10.2388
▁थियौं	-10.2401
▁प्रायः	-10.2408
▁फोरम	-10.2409
▁बढुवा	-10.2416
▁कुरालाई	-10.2417
▁धनी	-10.2425
▁समुदायका	-10.2431
▁ढङ्ग	-10.2434
▁वास्तविक	-10.2435
▁बाहिरी	-10.2441
▁बालक	-10.2442
▁फराकिलो	-10.2444
▁हरि	-10.2459
▁गर्नुहोस्	-10.2459
▁अनुहार	-10.2462
▁थापाको	-10.2462
▁परिणत	-10.2469
▁कागजात	-10.247
▁परियार	-10.2472
तः	-10.2479
▁टीकापुर	-10.248
दै	-10.2484
लाइ	-10.2487
▁मार्च	-10.2495
▁जागिर	-10.2495
िस	-10.2501
▁सक्षम	-10.2506
▁दिएकी	-10.2506
▁सुपर	-10.2508
▁संस्थापक	-10.2513
▁चुक्ता	-10.2519
▁सूची	-10.2525
▁त्यसरी	-10.2529
▁दृश्य	-10.2532
▁आपसी	-10.2534
▁बानी	-10.2539
▁स्वस्थ	-10.2541
▁बयान	-10.2545
▁गर्भवती	-10.2549
▁व्यवसायीहरु	-10.2559
▁जिल्लाबाट	-10.2563
▁लगेर	-10.2563
▁निकाल्न	-10.2573
▁संवेदनशील	-10.2574
▁जोडेको	-10.2574
▁सदस्यमा	-10.2575
रे	-10.2576
▁ग्राम	-10.2576
▁मकै	-10.2591
योग्य	-10.2596
▁वसन्त	-10.2597
▁भ्रमणमा	-10.26
▁श्रीमान्	-10.2608
▁सक्नेछन्	-10.261
▁बत्ती	-10.2617
▁सन्दीप	-10.2629
▁सब	-10.263
▁रोक्ने	-10.2631
▁फुटबलमा	-10.2632
▁नसकेका	-10.2632
▁जित्न	-10.2635
▁धम्की	-10.2646
▁परिचयपत्र	-10.2649
▁अशोक	-10.2651
▁शैली	-10.2665
▁आउँदो	-10.2671
▁चित्र	-10.2688
▁महेश	-10.2688
▁दोहोरो	-10.269
▁प्रशोधन	-10.269
▁मुआब्जा	-10.2706
▁सीता	-10.2707
▁हल्ला	-10.271
▁व्यवसायीलाई	-10.2719
▁खोज्न	-10.2724
ठ	-10.2725
▁नमुना	-10.2726
▁अतिक्रमण	-10.2733
▁बारम्बार	-10.2733
▁पुग्छ	-10.2734
▁आउँदै	-10.2735
▁झरेको	-10.274
▁क्लबले	-10.2743
▁जग्गामा	-10.2745
▁खरीद	-10.2748
▁जोडिएका	-10.2748
▁पढाई	-10.2748
▁आवको	-10.2749
▁दशक	-10.275
▁तुरुन्त	-10.2752
▁ढिला	-10.2752
▁प्राथमिक	-10.2756
▁सिटौला	-10.276
▁हिस्सा	-10.2763
ाएको	-10.2774
▁नभएसम्म	-10.2774
▁नाकामा	-10.2776
▁अस्पतालबाट	-10.2781
▁राष्ट्रसंघ	-10.279
▁जितेका	-10.2794
▁साहित्य	-10.2798
मणि	-10.28
▁समक्ष	-10.2805
▁सदुपयोग	-10.2807
▁इन्स्योरेन्स	-10.2807
▁नगरप्रमुख	-10.2807
▁खराब	-10.2813
▁स्टक	-10.2815
▁स्थानीयले	-10.2817
▁युरो	-10.2821
▁हराएको	-10.2823
▁भईरहेको	-10.2825
▁ढुङ्गा	-10.2825
▁गर्नुपर्नेमा	-10.2829
▁खुल्ला	-10.2829
▁च	-10.2833
▁इरान	-10.2843
▁भलिबल	-10.2851
▁अर्याल	-10.2854
▁नेपालबाट	-10.2854
▁लिगमा	-10.2856
▁वर्षाका	-10.286
▁खेलकूद	-10.2861
▁कुराहरु	-10.2864
▁अधिकारीको	-10.2866
▁दृष्टिकोण	-10.2866
▁उद्योगमा	-10.2871
▁उठाउने	-10.2876
▁हैसियत	-10.2887
▁प्रजिअ	-10.2888
▁गइरहेको	-10.29
▁धितोपत्र	-10.2903
▁मानिसले	-10.2905
▁गीतमा	-10.291
▁चित्त	-10.2914
▁बोलाएर	-10.2915
▁गर्छौं	-10.2915
कि	-10.2916
▁परिस्थितिमा	-10.2924
▁सुरक्षाको	-10.2924
▁एकदमै	-10.2928
झ	-10.2928
▁मस्यौदा	-10.2932
▁सहमत	-10.2932
▁तीनवटा	-10.2935
▁कसुर	-10.294
▁दलहरू	-10.2943
▁मनोनयन	-10.2946
▁आयल	-10.2949
▁संसार	-10.2952
▁बेलायतमा	-10.2966
▁जनताका	-10.2972
▁त्यसबाट	-10.2973
▁कमाउन	-10.2976
▁अधिकारीहरू	-10.2984
▁रद्द	-10.2985
▁अपराह्न	-10.2986
▁बझाङ	-10.2986
▁ई	-10.2989
▁लक्ष्मण	-10.2989
कोभिड	-10.2992
▁भीडभाड	-10.2993
▁पति	-10.2995
▁एकपटक	-10.3002
▁राम्रोसँग	-10.3004
▁पुगेपछि	-10.3005
▁हामीसँग	-10.3008
▁ध्यानमा	-10.3016
▁विरोधी	-10.302
▁नसकिएको	-10.3025
जनक	-10.3037
▁तिमी	-10.3039
▁पहाड	-10.304
▁विहान	-10.305
▁लोक	-10.3053
▁सिनेमा	-10.3053
▁सेमिफाइनल	-10.3063
▁गराएर	-10.3063
▁सिमाना	-10.3064
▁सर्वसम्मत	-10.3066
▁सिलिन्डर	-10.3068
▁संसद्मा	-10.3076
▁थियौँ	-10.3077
▁मेरा	-10.3077
▁गुल्मी	-10.3085
▁पुग्दा	-10.3092
▁उच्चस्तरीय	-10.3096
▁अभियुक्त	-10.3097
▁किस्ता	-10.31
▁दिलाउन	-10.31
▁चीनबाट	-10.31
▁नवराज	-10.3101
▁परिमाण	-10.3105
नन्	-10.3107
▁हालको	-10.3109
▁बढ्नेछ	-10.3112
▁उस्तै	-10.3118
▁स्मृति	-10.3119
▁टावर	-10.312
▁खेलाडीको	-10.3122
मौद्रिक	-10.3122
▁बोकेको	-10.3127
▁राख्नु	-10.3129
▁दोलखा	-10.313
▁भरमा	-10.3133
▁बुवा	-10.3133
▁टेस्ट	-10.3137
▁बहाव	-10.3137
▁फस्टाए	-10.3143
▁भविष्यमा	-10.3155
▁खेलाडीले	-10.3156
▁२०१७	-10.3156
कालीन	-10.3158
▁भैरहवा	-10.3158
▁पदार्थको	-10.3159
▁नाटक	-10.3161
▁वीर	-10.3163
▁कोरोनाविरुद्धको	-10.3175
▁त्यहाँबाट	-10.3183
▁गिरावट	-10.3183
▁ढिलो	-10.3191
▁बसपार्क	-10.3195
से	-10.3195
▁गरौँ	-10.3199
▁सुशील	-10.3202
▁अदुवा	-10.3203
▁राष्ट्रपतिको	-10.3208
▁शहीद	-10.3208
▁मिर्गौला	-10.3217
▁बुझाउन	-10.3222
▁उल्लेख्य	-10.3223
▁ग्लोबल	-10.3228
▁सेती	-10.3233
स्वरुप	-10.3233
▁सुख	-10.3234
▁मर्म	-10.3243
▁उकालो	-10.3245
ुपर्छ	-10.3246
▁हेटौँडा	-10.325
▁प्रारम्भ	-10.3252
▁तालिबान	-10.3253
▁बहु	-10.3253
▁वाम	-10.3255
▁निधि	-10.3255
▁बिन्दु	-10.326
▁अङ्क	-10.3272
▁उदयपुर	-10.3272
▁प्राप्ति	-10.3284
▁स्थल	-10.3302
▁भनेपछि	-10.3314
▁राज्यका	-10.333
▁ना	-10.3333
▁तिवारी	-10.3338
▁चल्न	-10.3339
▁गर्दैछ	-10.3342
▁गुण	-10.3342
▁जोडी	-10.3353
▁प्लान्ट	-10.3357
▁ग्रुप	-10.3362
▁अत्यन्तै	-10.3363
▁युरोपेली	-10.3369
▁अनुरुप	-10.3372
▁प्रतिशतभन्दा	-10.3374
ू	-10.3378
▁आफूहरू	-10.3387
▁वृद्ध	-10.3387
▁विवादमा	-10.3393
गा	-10.3397
▁रहँदै	-10.3398
▁इन्जिनियर	-10.3401
▁गरौं	-10.3401
▁पन्त	-10.3404
▁इन्धन	-10.3405
मी	-10.3407
▁चाँडो	-10.3409
मे	-10.3416
▁प्रतिवद्धता	-10.3417
सन	-10.3421
▁वर्षभन्दा	-10.3422
▁जनगणना	-10.3427
▁राजु	-10.3438
▁विद्यालयका	-10.3446
▁गठित	-10.3446
▁एपीएफ	-10.3447
▁जित्ने	-10.3453
▁पद्धति	-10.346
▁स्थलगत	-10.3464
▁महिनापछि	-10.3473
वी	-10.3478
▁जग्गाको	-10.3479
▁घन्टा	-10.3482
मो	-10.3486
▁सकिँदैन	-10.3489
▁कोठामा	-10.3489
▁व्यवसायीको	-10.3491
▁गैर	-10.3494
आज	-10.3495
▁खेलबाट	-10.3498
▁यथार्थ	-10.3514
▁इटाली	-10.3515
▁सकेसम्म	-10.3517
▁कामलाई	-10.352
▁बिक्रीदर	-10.3529
▁बृद्धि	-10.353
▁२०१६	-10.353
▁डि	-10.353
▁युवाहरु	-10.3533
▁भन्नेबारे	-10.3534
▁नाघेको	-10.3547
दी	-10.3554
▁जिते	-10.3555
▁महानिरीक्षक	-10.3558
▁सुरू	-10.3558
िया	-10.3564
▁किमी	-10.3564
▁गरेपनि	-10.3565
▁उसलाई	-10.3568
▁मोहम्मद	-10.3583
गो	-10.359
▁खुट्टा	-10.3596
▁स्तर	-10.3604
▁बजेतिर	-10.3607
लि	-10.3611
▁खेलेका	-10.3614
▁पूर्वमन्त्री	-10.3616
▁बजारको	-10.3618
▁घनश्याम	-10.3623
▁उपसभापति	-10.3623
▁पुनःस्थापना	-10.3627
▁लेखेको	-10.3628
▁विघटनविरुद्ध	-10.363
▁संस्थाहरु	-10.3634
▁प्रशंसा	-10.3638
▁पाउँदा	-10.3639
▁सेट	-10.3643
▁चलाएको	-10.3645
▁अरुण	-10.3655
▁करिडोर	-10.3655
▁प्रदर्शनमा	-10.3659
▁गएराति	-10.3664
▁स्मार्ट	-10.3667
▁सरोकार	-10.3669
▁युवक	-10.3672
▁विधिबाट	-10.3678
▁होटलमा	-10.3679
▁कल्याण	-10.3685
▁गुमाउनेको	-10.3686
▁सिंहदरबार	-10.3687
▁उठेको	-10.3694
भ	-10.3702
▁पार्दै	-10.3703
▁निकायमा	-10.3711
▁रुपैयाँसम्म	-10.3711
▁बालबालिकाको	-10.3714
▁समानुपातिक	-10.3716
▁रिहा	-10.3717
▁बनाउँदा	-10.372
▁किनकि	-10.3724
▁सकिएपछि	-10.3727
▁एकातिर	-10.3727
▁गतेको	-10.3727
▁सङ्ख्यामा	-10.3729
▁अधिक	-10.3729
▁सशक्त	-10.3735
▁काभ्रेपलाञ्चोक	-10.3736
▁मानवअधिकार	-10.374
▁समावेशी	-10.3744
▁केशव	-10.3745
ियो	-10.3746
▁सतह	-10.3749
▁प्रजातान्त्रिक	-10.3749
▁अवतरण	-10.3752
▁नआएको	-10.3753
▁सांसदहरू	-10.3762
▁अन्यत्र	-10.3769
सक्ने	-10.377
▁भएकै	-10.3779
▁त्यसबेला	-10.3781
▁चेल्सी	-10.3781
▁मानिसहरू	-10.3784
▁पूर्णता	-10.3794
▁पन्तले	-10.3795
▁बस्तीमा	-10.3799
▁समुदायमा	-10.3804
▁ख्याल	-10.3817
▁अप्रिल	-10.3819
▁हात्ती	-10.382
्दै	-10.3821
▁सङ्क्रमणबाट	-10.3825
▁वीरेन्द्र	-10.383
▁चुरे	-10.3831
▁पत्राचार	-10.3833
विभाजित	-10.3835
▁भनेजस्तो	-10.3838
▁एशिया	-10.3839
▁अनौपचारिक	-10.3842
▁चर्चामा	-10.3848
▁गुरु	-10.3853
▁भौगोलिक	-10.3856
▁खोज	-10.3861
▁सामाग्री	-10.3873
▁बढाएर	-10.3873
▁अर्काे	-10.3874
ही	-10.3875
▁भन्नेमा	-10.3875
▁टी	-10.388
▁कार्यान्वयनका	-10.3886
▁पण्डित	-10.3898
▁आकार	-10.3899
▁कर्ण	-10.3899
▁विद्यार्थीहरु	-10.3916
▁अनुभूति	-10.3916
▁घाम	-10.3917
▁तीव्रता	-10.392
▁वीरगन्ज	-10.3934
▁जोन	-10.394
▁सुमन	-10.3942
▁प्रयोगमा	-10.3944
▁परिषद्को	-10.3949
▁मिलेको	-10.395
▁लाग्दैन	-10.3952
▁खास	-10.3954
▁निकायको	-10.3958
▁अगुवा	-10.3962
▁हिरासत	-10.3965
▁काठमाडाैं	-10.3966
▁खातामा	-10.3967
▁भरत	-10.3968
ुभयो	-10.3969
रहित	-10.3975
▁बढ्छ	-10.3976
▁आत्मनिर्भर	-10.3976
▁विना	-10.3978
▁पाइप	-10.3979
▁अप्ठ्यारो	-10.3983
▁क्रान्ति	-10.3989
▁टोलीका	-10.3993
▁बसे	-10.3998
▁टुङ्गो	-10.4015
▁पार्दासम्म	-10.4016
▁बाजुरा	-10.4016
▁तपाईंको	-10.4016
▁घाँटी	-10.4018
▁सरस्वती	-10.402
▁जोड्न	-10.4023
▁आन्दोलनका	-10.4025
▁अनुशासन	-10.4032
▁नेविसंघ	-10.4033
▁बाबु	-10.4036
▁घुम्न	-10.4037
▁भाउ	-10.4038
▁बढेका	-10.4043
▁आउनेछ	-10.4043
▁राखिएका	-10.4048
▁गहिरो	-10.4049
▁तालीम	-10.4051
▁बाँध	-10.4053
▁राती	-10.4056
▁शहरमा	-10.4064
▁टि	-10.4064
▁चाहिन्छ	-10.4065
▁परिमार्जन	-10.4073
▁यससँगै	-10.4078
▁दिवसका	-10.4078
▁बधाई	-10.4082
▁बाँस्कोटा	-10.4083
▁स्थानहरु	-10.4084
▁चरम	-10.4088
▁निकाल्ने	-10.4093
▁प्रतिस्पर्धामा	-10.4094
▁श्रीलंका	-10.4099
▁पाहुना	-10.411
▁चरित्र	-10.4113
▁आश्वासन	-10.4116
▁पक्की	-10.4116
▁अपाङ्गता	-10.4124
▁मातहत	-10.4124
▁प्रभु	-10.4125
▁जनावर	-10.4128
▁व्रत	-10.4132
▁निलम्बन	-10.4134
▁आफैँले	-10.4145
▁विशिष्ट	-10.4148
▁उत्साह	-10.415
▁प्रजाति	-10.4151
जे	-10.4159
विरुद्धको	-10.4163
▁१५०	-10.4167
▁सधैं	-10.4172
▁असन्तुष्ट	-10.4172
▁खुल्न	-10.4176
▁उहाँलाई	-10.4179
▁सुरेश	-10.4181
▁बोलाएका	-10.4186
▁निगमका	-10.419
▁मुद्रा	-10.4191
▁काङ्ग्रेस	-10.4193
▁पठाएका	-10.4193
▁पात्र	-10.4193
▁मन्त्रालयलाई	-10.4194
▁टस	-10.4197
▁सहिद	-10.4202
▁विस्फोट	-10.4203
घ	-10.4204
▁शान्तिपूर्ण	-10.4206
▁स्थिर	-10.421
▁छोडेर	-10.4221
▁उद्यमी	-10.4222
▁खानी	-10.4224
▁धेरैजसो	-10.4229
▁समाचारमा	-10.4233
▁लागेपछि	-10.4233
▁खुकुलो	-10.4234
▁बैंकमा	-10.424
▁कार्यदलले	-10.4242
▁पा	-10.4245
▁सजिलै	-10.4246
▁चिन्तित	-10.4252
▁गभर्नर	-10.4252
▁विगतका	-10.4254
▁इतिहासमा	-10.426
▁तस्करी	-10.4266
भा	-10.4266
▁नियमन	-10.4268
▁सपथ	-10.4269
▁ल्याए	-10.4272
▁बि	-10.4272
▁हेल्थ	-10.4274
▁भार	-10.4274
▁एन्टिजेन	-10.4291
▁खेत	-10.4299
▁लड्न	-10.4302
▁त्रिपाठी	-10.4303
▁देशबीच	-10.4303
▁विद्यमान	-10.4303
▁मुस्लिम	-10.4304
▁अस्थिरता	-10.4306
उ	-10.4308
▁उहाँहरु	-10.431
▁एसपी	-10.4317
▁पैदा	-10.432
▁पौडेलको	-10.432
▁नपाए	-10.4326
▁ढुंगा	-10.4332
▁महँगो	-10.4337
िने	-10.4342
▁देखाएर	-10.4343
▁पत्रकारिता	-10.4347
▁समितिलाई	-10.4371
▁मधेश	-10.438
▁टेलिफोन	-10.4383
▁बाधा	-10.4383
▁लोकप्रिय	-10.4386
▁बस्नु	-10.4386
▁दिन्छ	-10.4386
▁नर्स	-10.4389
७	-10.4391
▁भर्खरै	-10.4397
▁आयुक्त	-10.4402
▁शौचालय	-10.4406
▁गृहकार्य	-10.4407
▁साताको	-10.4408
▁बिहे	-10.4411
▁कोषाध्यक्ष	-10.4411
▁अन्तरराष्ट्रिय	-10.4417
र्स	-10.4419
▁घुस	-10.4419
▁धामी	-10.4421
▁प्रस्तावमा	-10.4423
▁सचिवालयका	-10.4423
ष	-10.443
▁अदालतका	-10.4431
▁श्याम	-10.4432
▁सामानको	-10.4439
▁परिषद	-10.4446
▁यसपालि	-10.4457
▁सहकार्यमा	-10.4458
▁एमालेमा	-10.4459
▁मिलाउने	-10.446
▁एन	-10.4464
▁विपरित	-10.4472
▁बुढाथोकी	-10.4476
▁गर्नुपरेको	-10.4476
▁समारोह	-10.4482
▁गगन	-10.4485
बित्तिकै	-10.4485
▁औषधी	-10.4486
▁फर्किन	-10.449
हामीले	-10.4491
▁योगेश	-10.4491
▁डिएसपी	-10.4492
▁जनकपुरधाम	-10.4494
▁घर्ती	-10.4494
कारी	-10.451
▁अंग	-10.451
▁घरपरिवार	-10.4511
▁मुस्किल	-10.4511
▁मावि	-10.4513
▁दाना	-10.4514
▁समन्वयमा	-10.4518
▁शुक्ल	-10.452
▁सेनाका	-10.4521
▁महिलाहरु	-10.4524
▁फिट	-10.4524
▁जलस्रोत	-10.4525
▁हाइड्रोपावर	-10.4529
▁नराम्रो	-10.453
▁उत्साहित	-10.4533
▁निजामती	-10.4534
▁जनमत	-10.4534
▁राजन	-10.4542
▁झण्डा	-10.4546
▁परिसरमा	-10.4549
▁भूमिकामा	-10.4551
▁उत्खनन	-10.4563
मुखी	-10.457
▁वेला	-10.4572
▁४००	-10.4573
▁ति	-10.4576
▁सघन	-10.458
रत	-10.458
▁सुनचाँदी	-10.4581
▁यकिन	-10.4581
अहिले	-10.4585
▁अनुसन्धानका	-10.4588
▁आइरहेका	-10.4591
▁पुलको	-10.4593
▁इन्चार्ज	-10.4593
▁प्रदूषण	-10.4594
▁प्रतिस्पर्धी	-10.4596
▁चैत्र	-10.4601
उनकै	-10.4604
सो	-10.4606
टे	-10.4606
▁मालपोत	-10.4607
▁काभ्रे	-10.4611
सित	-10.4612
▁बौद्ध	-10.4617
▁मनमा	-10.4618
▁धुलिखेल	-10.462
▁विद्यार्थीले	-10.4627
▁प्रतिशतसम्म	-10.4629
▁मानिसमा	-10.4633
▁महिनाअघि	-10.4634
दो	-10.4634
▁सिधै	-10.4634
▁गर्थे	-10.465
▁सुनिल	-10.4659
▁कुनैपनि	-10.4661
▁काउन्सिल	-10.4667
▁पोल	-10.4667
▁लोकपथ	-10.4677
▁गाविस	-10.4685
▁सागर	-10.4685
▁कच्चा	-10.4694
▁निकायका	-10.47
▁हिमालय	-10.4703
▁हिन्दू	-10.4705
▁मागेको	-10.471
▁डे	-10.4711
▁किनारमा	-10.4712
चा	-10.4722
▁भाडामा	-10.4722
▁लिँदै	-10.4728
▁प्रदर्शनी	-10.4728
▁बढेसँगै	-10.4729
▁मिलाइएको	-10.4729
▁पेट	-10.4738
▁शेखर	-10.4739
▁च्याम्पियन्स	-10.4744
▁टोलीको	-10.4746
▁२०१५	-10.4746
▁हुन्न	-10.4748
▁रमाइलो	-10.4748
▁अन्योल	-10.4755
▁पोस्ट	-10.4766
▁शल्यक्रिया	-10.4766
▁एस	-10.4767
▁बारे	-10.4768
▁तारा	-10.4771
▁ठाउँबाट	-10.4775
▁बैठकबाट	-10.4775
▁कार्यक्षेत्र	-10.4783
तापूर्वक	-10.4783
▁प्रदेशसभामा	-10.4784
▁कलेजमा	-10.4785
▁र्	-10.4787
▁पक्षबाट	-10.4789
▁कुमारी	-10.4791
कम्तिमा	-10.4796
▁बङ्गलादेश	-10.4799
वे	-10.48
▁नहुनु	-10.4803
▁लिमिटेडले	-10.4805
हो	-10.4805
▁बोल्ने	-10.4808
▁कल	-10.4816
▁दाजुभाइ	-10.4825
▁गठबन्धनको	-10.4827
▁बनेपछि	-10.4829
▁बताउछन्	-10.4832
▁तातोपानी	-10.4835
▁हार्दिक	-10.4837
▁मान्ने	-10.484
▁डोल्पा	-10.4845
▁गई	-10.485
▁आइ	-10.4854
▁झाले	-10.4854
▁अन	-10.4854
▁कागज	-10.4854
▁भेरियन्ट	-10.4874
▁लगेको	-10.4875
▁सुनार	-10.4876
▁कमला	-10.4879
▁देउवाको	-10.4879
▁तपाईँ	-10.4884
▁सिकाइ	-10.4886
बिना	-10.4886
▁तिनै	-10.4899
▁भोजपुर	-10.4906
▁उठाएको	-10.4907
▁सूचीकृत	-10.4909
▁हमाल	-10.4909
▁वैद्य	-10.4915
▁लाइफ	-10.4917
▁निष्कर्षमा	-10.4919
▁सचेतना	-10.492
▁सुचारु	-10.4923
▁बनायो	-10.4923
▁एकताबद्ध	-10.4923
▁दक्ष	-10.4928
ते	-10.4932
▁सहमतिमा	-10.4936
▁सन्तुलन	-10.4937
▁रहेकी	-10.4942
▁सहजै	-10.4944
▁सम्मानित	-10.4946
▁बोनस	-10.4947
▁घडी	-10.4959
▁अध्यक्षद्वय	-10.4962
▁निर्वाचनका	-10.4963
▁प्रवर्द्धन	-10.4973
▁ज	-10.4974
▁भोजन	-10.4974
▁सवालमा	-10.4977
▁कोहलपुर	-10.4977
रासस	-10.4978
▁गर्नुका	-10.498
▁बेलुकी	-10.4984
▁पढ्ने	-10.4984
▁पाइलट	-10.4985
▁चोक	-10.4989
▁कैदीबन्दी	-10.4989
▁झगडा	-10.4991
▁यहि	-10.4995
▁केवल	-10.5005
▁योग्य	-10.5005
नेपाल	-10.5018
नो	-10.5021
▁मिल्छ	-10.5027
▁बगाएको	-10.5035
▁दुर्गम	-10.5041
▁एप	-10.5042
▁गराई	-10.5045
▁धनकुटा	-10.5051
▁गैरआवास	-10.5051
▁लाभांश	-10.5051
▁घट्दै	-10.5052
▁बालकृष्ण	-10.5052
▁फर्म	-10.5057
▁बाहिरबाट	-10.5059
▁उपराष्ट्रपति	-10.506
▁बाक्लो	-10.507
▁अछाम	-10.507
्र	-10.5071
▁पूर्णरुप	-10.5073
▁घटनाबारे	-10.5078
▁मार्ने	-10.508
▁जनतामा	-10.5081
▁दि	-10.5082
टो	-10.5084
▁परिक्षण	-10.5084
▁भिडियोमा	-10.5084
▁फर्कन	-10.5085
▁अत्याधिक	-10.509
▁नेपालगन्ज	-10.5091
▁उहाँहरू	-10.5094
▁अर्थतन्त्रमा	-10.5094
▁छलफलका	-10.5095
▁स्वच्छ	-10.5098
▁सं	-10.5099
▁नपाइने	-10.5107
▁अनुमतिपत्र	-10.5108
▁कमिटीमा	-10.5108
▁विद्यालयको	-10.5108
▁प्रबन्धक	-10.5109
मन्त्री	-10.5113
▁माओवादीले	-10.5115
▁मड्रिड	-10.5115
▁लिनु	-10.5123
▁कालापानी	-10.5123
▁स्थगन	-10.5125
▁सिंगापुर	-10.5126
▁सहरी	-10.5128
▁शुरू	-10.5129
▁संस्थापन	-10.513
ुहोस्	-10.5131
▁इन	-10.5135
▁बढ्नु	-10.5141
▁?	-10.5148
▁मूल्याङ्कन	-10.5153
▁टु	-10.5157
▁लगाउनु	-10.5162
▁उपसमूह	-10.5163
▁जनजीवन	-10.5163
▁कालीगण्डकी	-10.5166
▁ओभर	-10.5166
▁ल	-10.517
▁उठाएका	-10.517
▁नजाने	-10.5171
▁खेल्दै	-10.5174
▁गोप्य	-10.5179
▁रुपान्तरण	-10.518
▁त्यसअघि	-10.5183
▁एनसेल	-10.5187
▁मुक्ति	-10.5189
▁राजविराज	-10.52
▁सम्झौतामा	-10.5203
▁निषेध	-10.5204
▁प्रान्त	-10.5211
▁असल	-10.5215
▁स्थायित्व	-10.5219
▁सामेल	-10.5219
▁ढुक्क	-10.5224
▁एकताका	-10.5224
▁कोषको	-10.5226
▁राख्नुपर्ने	-10.5239
▁नेपालीहरु	-10.524
▁चेतना	-10.524
▁जीप	-10.5243
▁सेतो	-10.5246
▁लाइसेन्स	-10.5255
▁बनेर	-10.5257
▁पार्किङ	-10.5257
▁रेखा	-10.5263
▁बोर्डका	-10.5266
▁नदिए	-10.5267
▁गरिँदै	-10.5271
▁स्वाभाविक	-10.5276
▁भेग	-10.5276
▁जनजाति	-10.5278
▁समर्थक	-10.5279
▁त्यहीँ	-10.5281
▁भवनको	-10.5282
▁अदालतबाट	-10.5283
लार्इ	-10.5285
▁परिचय	-10.5294
▁दुईजना	-10.5295
▁भनिए	-10.5297
▁लेन	-10.5299
▁केन्द्रबाट	-10.5304
▁कम्पनीहरु	-10.5306
▁हमला	-10.5313
▁भाइरल	-10.5314
▁नाकाबाट	-10.5325
▁पहलमा	-10.5326
▁तरिका	-10.5326
▁स्थितिमा	-10.5327
▁दमक	-10.533
▁सयभन्दा	-10.5332
▁निवर्तमान	-10.5333
▁जाहेरी	-10.5334
▁अपनाएर	-10.5334
डे	-10.5335
▁जी	-10.5337
▁बुझाउने	-10.5345
▁भेटेर	-10.535
▁बानेश्वर	-10.5353
▁सारेको	-10.5358
▁सिल	-10.5359
चाहिँ	-10.5362
▁गरेमा	-10.5367
▁विभागमा	-10.5369
▁राजधानीमा	-10.5371
▁सम्झना	-10.5376
▁आगमन	-10.539
▁उपभोग्य	-10.539
▁क्यान	-10.5401
▁सिमकोट	-10.5405
▁पर्खाल	-10.5407
२०	-10.5408
▁महत्त्वपूर्ण	-10.541
▁प्राडा	-10.541
▁अविरल	-10.5414
▁सचिवालयमा	-10.5415
▁अनिल	-10.5415
▁हेटौंडा	-10.5417
▁रुचि	-10.5418
▁भाषामा	-10.5419
▁लकडाउनका	-10.5421
▁भगवान	-10.5424
▁वञ्चित	-10.5428
▁निवारण	-10.5432
▁कोशी	-10.5434
▁आजसम्म	-10.5451
▁महत	-10.5455
▁इजरायल	-10.546
▁पदका	-10.5461
▁ट्वीट	-10.5467
▁पुनर्गठन	-10.5467
▁स्थानबाट	-10.5469
▁समेटिएको	-10.5479
▁धोका	-10.5482
▁जनक	-10.5484
▁राम्रै	-10.5491
▁संलग्नता	-10.55
▁जीत	-10.5503
▁बल्ल	-10.5505
▁पाउनु	-10.5505
▁लडाइँ	-10.5506
▁फैलिन	-10.5516
▁महामारीबाट	-10.5517
▁केरा	-10.5519
▁पहिरोमा	-10.5519
▁जसपाका	-10.5519
▁मनोज	-10.5524
▁पशुपतिनाथ	-10.5527
▁दास	-10.5533
▁खेर	-10.5534
▁बाख्रा	-10.5535
▁संगठनको	-10.5536
▁साउद	-10.5536
▁युवालाई	-10.5537
▁ठिक	-10.5538
▁धुलो	-10.554
▁विक्रम	-10.5548
▁छाड्ने	-10.555
▁खोज्दा	-10.555
▁स्व	-10.5551
▁खुल्ने	-10.5554
▁एजेण्डा	-10.5562
▁पशुपालन	-10.5563
▁बताउँछिन्	-10.5564
▁कोरियाली	-10.5565
▁खोजिएको	-10.5567
▁डाटा	-10.5576
▁पाठ्यक्रम	-10.5583
▁स्थानान्तरण	-10.5583
▁कार्यपालिका	-10.5584
▁उपभोग	-10.5584
▁विद्या	-10.5596
▁कठिनाइ	-10.5603
▁गण	-10.5604
▁मानिने	-10.5613
▁नगर्दा	-10.5619
▁चोलेन्द्र	-10.5623
▁नम्बरमा	-10.5625
▁सम्बद्ध	-10.5631
▁फाइनान्स	-10.5631
▁सांसदको	-10.5636
▁घरघर	-10.5641
▁सवै	-10.5644
▁सञ्चारकर्मी	-10.5645
तर	-10.5658
▁युरोप	-10.5665
▁मनोरञ्जन	-10.5667
▁गुमाएको	-10.5669
▁करार	-10.5676
▁सल्यान	-10.5686
▁समाजको	-10.5688
▁प्रचण्डलाई	-10.5688
▁देखिन्छन्	-10.569
▁निज	-10.5691
▁भोक	-10.5692
▁खेलाडीहरु	-10.5692
▁सांसदलाई	-10.5696
चे	-10.5698
▁गुणा	-10.5705
▁तुलसी	-10.5708
▁स्मारक	-10.5708
▁शिकार	-10.5713
▁आमाको	-10.5713
▁अपमान	-10.5721
▁तुलसीपुर	-10.5722
▁दैलेख	-10.5727
▁फेरी	-10.5732
▁समुह	-10.5735
▁विश्वकै	-10.5739
▁आवद्ध	-10.5748
हामी	-10.5748
▁छठ	-10.5748
००	-10.5757
गी	-10.5763
▁फेसबुकमा	-10.5764
▁भ	-10.5766
▁सिस्टम	-10.5772
▁जय	-10.5781
▁सरसफाई	-10.5784
▁त्याग	-10.5786
▁म्याच	-10.5793
▁नहोस्	-10.5801
▁मिलाएर	-10.5802
▁बेच्न	-10.5802
▁प्रकरण	-10.5803
▁चलचित्रमा	-10.5804
▁निष्कासन	-10.581
▁बताइन्छ	-10.581
▁अवलम्बन	-10.582
▁समेटेर	-10.5821
▁वान	-10.5825
▁गर्मी	-10.5826
▁सैद्धान्तिक	-10.5827
▁विकासमन्त्री	-10.5829
कृष्ण	-10.5835
▁च्याम्पियनसिप	-10.5841
▁गुठी	-10.5842
जसपा	-10.5842
▁बढाएका	-10.5846
▁सातादेखि	-10.5853
१०	-10.5855
▁अमर	-10.5856
▁औचित्य	-10.5856
▁फर्केका	-10.5856
▁उप्रेती	-10.586
▁अन्तराष्ट्रिय	-10.5861
▁बिपी	-10.5867
बी	-10.587
▁ओ	-10.5871
▁खोजे	-10.5871
▁बास	-10.5875
▁स्कुटर	-10.588
▁उपस्थितिमा	-10.5888
▁चितवनको	-10.5891
▁गराउनु	-10.5897
▁शिविर	-10.5899
▁हेरफेर	-10.59
▁शय्या	-10.5904
▁देखाउने	-10.5905
▁आदर्श	-10.5906
▁जुटेका	-10.5912
▁हालतमा	-10.5915
▁आराधना	-10.592
िरहेको	-10.5924
▁जुलाई	-10.5933
▁आइपुगेको	-10.5945
▁होटेल	-10.5945
▁रुस	-10.5948
▁दिनभर	-10.595
▁फर	-10.595
▁विभागीय	-10.5954
▁दान	-10.5957
▁पारदर्शी	-10.5958
▁हेलिकप्टर	-10.5959
▁दोश्रो	-10.5961
▁रोकिएका	-10.5962
▁डुबान	-10.5968
▁समानता	-10.5976
▁भन्छ	-10.5976
▁स्वर	-10.5978
▁बुझाएका	-10.5989
▁प्रस्तुति	-10.599
▁कर्म	-10.5991
कर	-10.5991
फा	-10.5993
▁लिपुलेक	-10.5997
▁दिदीबहिनी	-10.6001
▁एसिड	-10.6002
▁झापाको	-10.6004
▁रहेछन्	-10.6009
▁भक्तजन	-10.6009
▁हिसाब	-10.6016
▁एकएक	-10.6016
बापत	-10.6018
▁रजत	-10.6022
▁बक्यौता	-10.6022
▁बेरोजगार	-10.6022
▁त्यसमध्ये	-10.6023
▁बालविवाह	-10.6026
▁कृष्णबहादुर	-10.603
▁फर्किएको	-10.6032
▁आकाश	-10.6032
▁बोल	-10.6037
▁सोचे	-10.6038
▁हराउँदै	-10.6043
▁हरियो	-10.6044
▁श्रेष्ठलाई	-10.6053
▁सारिएको	-10.6053
▁चीनका	-10.6053
▁रासायन	-10.6063
▁बढे	-10.6071
▁रामप्रसाद	-10.6071
▁फार्म	-10.6078
्न	-10.6078
▁महा	-10.6078
▁संकटमा	-10.6081
खोला	-10.6086
ानुसार	-10.6088
▁मनोबल	-10.6089
▁झाँक्री	-10.6089
बमोजिम	-10.6089
▁युएई	-10.6092
▁टर्की	-10.6092
▁भ्रमणका	-10.6094
▁स्थानीयवासीको	-10.6095
▁प्रयोगकर्ता	-10.6103
▁सुनुवाई	-10.6104
▁बिघा	-10.6104
▁हटाएर	-10.6105
▁भर्न	-10.6107
ंग	-10.6107
▁महाप्रबन्धक	-10.6109
▁जग	-10.6109
▁विश्वको	-10.6111
▁स्थिरता	-10.6111
▁आले	-10.6112
▁दिलाएका	-10.6114
▁दायरामा	-10.6115
▁कु	-10.6117
▁सोलुखुम्बु	-10.6124
पश्चात्	-10.6125
▁अवकाश	-10.6128
▁काठमाडौँमा	-10.6133
▁घटनाका	-10.6134
▁पक्कै	-10.6136
▁नेपालसँग	-10.6136
▁विद्रोह	-10.6137
▁मिलन	-10.614
▁पाठ	-10.6142
▁अचानक	-10.6145
▁मुगु	-10.6145
▁परिवारमा	-10.6148
▁बुबा	-10.6162
▁मोडल	-10.6165
▁बिहानै	-10.6165
▁नवलपुर	-10.6167
फ	-10.6169
▁ताजा	-10.617
▁सहितको	-10.6171
मैत्री	-10.6174
▁आइसियु	-10.618
▁बिस्तारै	-10.619
पे	-10.6193
▁प्रचारप्रसार	-10.6196
▁दैनिकी	-10.6196
▁रेलमार्ग	-10.6197
▁क्वारेन्टिनमा	-10.6197
▁सभापतिमा	-10.6199
▁दायरा	-10.6199
▁क्वारेन्टिन	-10.6201
िन्	-10.6202
▁नेम्वाङ	-10.6202
▁जवान	-10.6204
▁दिइरहेको	-10.6207
▁किताब	-10.6207
▁अव	-10.6207
▁हस्पिटल	-10.6207
महान्यायाधिवक्ता	-10.6207
▁कक्षमा	-10.6209
त्र	-10.6211
▁प्रतिष्ठानमा	-10.6213
▁खाएर	-10.6215
▁पुनरावलोकन	-10.6216
▁यात्रामा	-10.6216
▁सुखी	-10.6217
माया	-10.6223
▁शाखाका	-10.6224
▁रुट	-10.6246
▁अफ्रिका	-10.6248
▁पाइँदैन	-10.6249
▁छुट्टाछुट्टै	-10.6249
▁सन्धि	-10.6251
दे	-10.6254
▁नाक	-10.6255
▁अष्ट्रेलिया	-10.6255
▁गरिदिएको	-10.6257
▁आइसकेको	-10.6264
▁काँग्रेसका	-10.6265
▁साग	-10.6267
▁काठमाडौ	-10.6267
▁कारखाना	-10.6269
▁वीरेन्द्रनगर	-10.627
▁दोष	-10.6272
▁स्वामित्व	-10.6281
▁पूर्णिमा	-10.6286
▁सिफारिश	-10.629
▁प्रस्थान	-10.6291
▁प्रत्यारोपण	-10.6291
▁थालनी	-10.6291
▁सट्टा	-10.6291
▁अध्यक्षमा	-10.6292
▁प्रदायक	-10.6297
▁बाइडेन	-10.6301
▁कम्प्युटर	-10.6306
▁हतार	-10.6307
▁गैरसरकारी	-10.6312
▁दूरसञ्चार	-10.6317
▁नवीन	-10.6317
▁होली	-10.6321
▁बोलाउन	-10.6324
▁प्रस्ट	-10.6328
▁मतगणना	-10.6333
भी	-10.6333
▁नलाग्ने	-10.6334
▁विकृति	-10.6339
▁प्रतिष्ठानका	-10.6346
▁उद्धृत	-10.6354
▁भेलामा	-10.6354
▁घाँस	-10.6354
डो	-10.6357
▁यु	-10.6359
▁हजारौँ	-10.6359
▁पाउनेछन्	-10.6361
▁बीपी	-10.6363
▁अनशन	-10.6365
▁तारिख	-10.6366
▁कपाल	-10.6372
▁निमोनिया	-10.6375
▁साइकल	-10.6383
▁मौन	-10.6386
▁रिमाल	-10.6389
▁कार्यकारिणी	-10.6396
▁सर्वेक्षण	-10.6396
▁गाली	-10.6397
▁सेल्सियस	-10.6397
भर	-10.6399
▁पोर्चुगल	-10.6399
▁कमिटीका	-10.6401
▁जुटाउन	-10.6401
▁पैदल	-10.6403
▁मेघगर्जन	-10.6412
▁शुभारम्भ	-10.6417
▁अध्ययनरत	-10.6421
▁सर्ने	-10.6423
▁नसक्नु	-10.6424
▁वृत्त	-10.6425
▁बोलपत्र	-10.6428
▁पाइए	-10.6428
▁कार्यसूची	-10.643
▁महतले	-10.6432
▁बेइजिङ	-10.6438
▁दिपायल	-10.6438
▁दिई	-10.6441
▁उज्यालो	-10.6447
▁उमेश	-10.6452
जो	-10.6454
▁राशि	-10.6457
▁भागरथी	-10.646
▁गोलको	-10.646
्ने	-10.6464
▁पक्का	-10.6464
▁नुन	-10.6466
▁अण्डा	-10.6471
▁बाँकेमा	-10.6471
▁दिनका	-10.6473
▁शताब्दी	-10.6475
▁चुहावट	-10.6485
▁विरुद्धमा	-10.6486
▁एकाइ	-10.6488
▁करण	-10.649
▁विवेक	-10.6493
▁अपराधी	-10.6493
▁बैंकहरु	-10.6499
ति	-10.65
▁समुदायले	-10.6503
▁निकाल्दै	-10.6503
▁स्तरमा	-10.651
▁मिस	-10.6512
११	-10.6513
▁प्रकरणमा	-10.6517
▁भन्	-10.6522
▁आदिवासी	-10.6524
▁प्रकाशमान	-10.6526
▁लोप	-10.6527
▁जुत्ता	-10.6532
▁भोलिपल्ट	-10.6539
▁सिलसिलामा	-10.6541
▁असहज	-10.6542
▁सिंगो	-10.6546
▁आउँछन्	-10.6548
▁गर्नुहुन्छ	-10.6549
▁सर्व	-10.655
▁मैनाली	-10.6553
▁करिव	-10.6553
▁सिन्धुली	-10.6554
▁गैँडा	-10.6555
▁लेखाई	-10.6568
▁ढुंगाना	-10.6569
▁उर्जा	-10.6572
▁बनेपा	-10.6573
▁निर्णयहरु	-10.6576
हे	-10.6577
वाट	-10.6578
▁सुन्न	-10.6582
ाइ	-10.6586
▁देखाउँदै	-10.659
दर	-10.6591
▁शान्त	-10.6596
सम्मका	-10.6597
▁चाहे	-10.6597
▁गर्दैन	-10.6599
▁हितमा	-10.6608
▁लाखौं	-10.661
▁देशव्यापी	-10.661
▁उक्लिए	-10.661
▁भनि	-10.6612
▁अमेरिकाका	-10.6613
अनुरुप	-10.6623
तापनि	-10.6623
▁औसत	-10.6625
▁सरल	-10.6628
▁प्रतिबद्ध	-10.663
▁भयावह	-10.6631
▁कतिपयले	-10.6633
▁व्यवसायिक	-10.6634
▁२०७१	-10.6635
▁गर्नुको	-10.6638
▁सर	-10.6644
▁चितुवा	-10.6646
▁घरधुरी	-10.6648
▁कोषका	-10.6648
▁रोहित	-10.6654
▁खानेपानीको	-10.6658
▁अनुकूल	-10.6658
▁कम्पनीमा	-10.6658
▁लाखौँ	-10.6662
▁समस्याको	-10.6665
▁छैनौं	-10.6668
वाला	-10.667
▁तिहाइ	-10.6675
▁भाईरस	-10.6675
▁डिजेल	-10.6676
▁बोर्डको	-10.668
▁फर्के	-10.6683
▁नदेखिएको	-10.6684
▁राज्यमा	-10.6689
वटै	-10.669
▁बडी	-10.6693
▁छायांकन	-10.6697
▁लम्साल	-10.6697
▁विद्रोही	-10.6697
▁पूँजी	-10.6698
▁पाउनुपर्ने	-10.67
▁खाडी	-10.6703
▁सक्रियता	-10.6703
▁क्रसर	-10.6707
▁तार	-10.6707
▁तरलता	-10.6711
▁उपनिर्वाचन	-10.6713
▁सकिए	-10.6717
▁मिलियन	-10.6719
▁दशैं	-10.6722
▁बृहत्	-10.673
▁मौसमविद्	-10.673
▁गरिदिन	-10.6731
▁सङ्क्रमणका	-10.6733
▁च्याम्पियन	-10.6739
▁कर्मचारीहरु	-10.6743
▁निकालेर	-10.6746
▁घटनाक्रम	-10.6757
▁घोषित	-10.6757
▁पसलमा	-10.6758
▁एकैपटक	-10.6763
▁पार्टीबाट	-10.6765
▁बेलायती	-10.6766
▁सुधारका	-10.6768
१५	-10.6768
▁व्यक्तिमा	-10.677
▁मुलुकबाट	-10.6771
▁परिचित	-10.6772
▁जनमोर्चा	-10.6775
बा	-10.6777
▁सत्तामा	-10.6781
▁बन्छ	-10.6782
▁खेले	-10.6783
▁मौसममा	-10.6784
▁बुझ्ने	-10.6788
▁भगवती	-10.6789
▁पीडितलाई	-10.6795
यता	-10.6803
▁परिरहेको	-10.6804
▁खाँण	-10.6806
▁नहुन	-10.6807
▁बैठकपछि	-10.6807
पो	-10.6809
▁एकाएक	-10.6816
▁विवादित	-10.682
▁वित्त	-10.682
▁गरिरहे	-10.6821
▁शैलीमा	-10.6824
▁नपाउँदा	-10.6828
▁अभिलेख	-10.6828
▁ठुलो	-10.6829
▁नआउने	-10.6831
▁प्रधानमन्त्रीका	-10.6831
▁महानगरपालिकाका	-10.6837
▁जुटेको	-10.6838
▁बोट	-10.684
▁गर्नुपर्नेछ	-10.6845
▁तब	-10.6847
▁अनुदानमा	-10.6849
▁इटहरी	-10.685
▁दमौली	-10.685
▁द्विपक्षीय	-10.6853
▁उपसभामुख	-10.6856
▁सरोज	-10.6861
▁सम्ममा	-10.6863
▁मेलमिलाप	-10.6865
▁लोकमार्ग	-10.6867
▁छौ	-10.6868
▁सामग्रीको	-10.687
▁सुनिश्चितता	-10.687
▁चिन्ह	-10.6872
▁निष्काशन	-10.6873
▁मन्त्रीहरु	-10.6873
▁जनार्दन	-10.688
▁बोलाउने	-10.6883
भो	-10.6884
▁गम्भिर	-10.6891
▁चहलपहल	-10.6895
▁युरोपियन	-10.6895
▁आदानप्रदान	-10.6897
▁रमाउन	-10.6904
▁बन्दी	-10.6907
▁प्याज	-10.6907
▁टोलीमा	-10.6907
▁पदको	-10.691
▁उपसमिति	-10.6913
▁हाइड्रो	-10.6913
▁निष्पक्ष	-10.6914
हरुका	-10.6917
▁हुँदाहुँदै	-10.6918
▁खरेल	-10.6918
▁सेटमा	-10.6921
▁नेपालमै	-10.6921
▁व्यक्तित्व	-10.6923
▁तराईका	-10.6925
▁केन्द्रिय	-10.6925
▁जुलुस	-10.6926
▁भाव	-10.693
▁देवेन्द्र	-10.6933
▁धर्ना	-10.6935
▁स्वतः	-10.694
▁स्कूल	-10.6945
▁विद्यालयले	-10.6947
▁डी	-10.695
▁रोकथामका	-10.6952
▁नआए	-10.6956
दिन	-10.6959
▁विदेशमन्त्री	-10.696
▁अग्लो	-10.6962
▁अन्ततः	-10.6962
▁सायद	-10.6963
गे	-10.6967
▁मुलुकभर	-10.6968
▁घटनास्थलमा	-10.6969
▁बेच्ने	-10.6972
▁रणनीतिक	-10.6975
▁आफूसँग	-10.6982
▁नायव	-10.6984
रहेको	-10.6988
▁वार्तामा	-10.6992
▁मेहनत	-10.6998
▁शुरुवात	-10.6999
▁म्युजिक	-10.7001
▁इँटा	-10.7006
अब	-10.7007
▁कर्णालीमा	-10.7008
▁पदमुक्त	-10.701
▁भाषण	-10.7012
▁विराटनगरमा	-10.7012
▁दरमा	-10.7019
▁हिमालयन	-10.702
▁जनचेतना	-10.7024
▁लहान	-10.7029
▁विशेषता	-10.703
ान	-10.7034
▁भरिए	-10.7035
▁रंग	-10.7035
▁रहनु	-10.7041
नु	-10.7044
▁दक्षिणी	-10.7048
▁संक्रमितहरु	-10.7048
▁रिसोर्ट	-10.7052
▁सेप्टेम्बर	-10.7053
▁सर्वसाधारणको	-10.7067
▁नव	-10.7071
▁मजदूर	-10.7072
▁वातावरणीय	-10.7074
▁बैशाख	-10.7074
▁जवाफमा	-10.7075
▁तोलामा	-10.7075
▁प्रतिनिधिसभामा	-10.7076
▁वुहान	-10.7083
▁दिइरहेका	-10.7083
▁निराश	-10.7085
▁नैतिकता	-10.7087
▁विन्दु	-10.7091
▁अफगानिस्तानमा	-10.7092
▁सुब्बा	-10.7092
▁फेब्रुअरी	-10.7093
▁भित्री	-10.7094
▁असहमति	-10.7098
▁मनाइने	-10.7098
▁सूचक	-10.7098
▁रिटमा	-10.7105
▁वडाका	-10.7107
▁फाइल	-10.7109
▁लाभग्राही	-10.7109
▁उपसचिव	-10.711
▁उनै	-10.7116
▁अनसन	-10.7117
▁बैसाख	-10.712
▁ज्याला	-10.712
▁आफु	-10.712
▁मोड	-10.712
▁मूल्यवृद्धि	-10.712
▁नोक्सानी	-10.7146
▁एजेन्डा	-10.7148
▁सकियो	-10.7154
▁ज्ञापनपत्र	-10.7165
जन	-10.7168
▁भित्रिने	-10.7172
ुभएको	-10.7174
▁क्रान्तिकारी	-10.7176
भरि	-10.7178
▁रक्षामन्त्री	-10.7178
▁गुमाएर	-10.7178
▁रवीन्द्र	-10.718
▁होइनन्	-10.7181
▁टेकु	-10.7184
यी	-10.7189
▁बढाउनुपर्ने	-10.719
▁परिषद्का	-10.7192
▁रहर	-10.7197
▁मानेर	-10.7198
▁विवेकशील	-10.7198
यू	-10.7198
▁झोला	-10.72
▁आक्रमणमा	-10.7202
▁राष्ट्रियता	-10.7204
▁अफर	-10.7209
▁पसे	-10.7213
▁लिएपछि	-10.7222
▁नेपालसहित	-10.7222
▁समयपछि	-10.7226
▁जैविक	-10.7227
▁घटाउन	-10.7233
▁गरिनुपर्ने	-10.7235
▁आवागमन	-10.7236
▁छक्का	-10.7236
▁हजारौं	-10.7239
▁उत्रिएका	-10.7243
▁मधेसी	-10.7251
▁जडीबुटी	-10.7257
▁समसामयिक	-10.7257
▁उठ्ने	-10.7265
▁सभ्यता	-10.7266
▁कुँवर	-10.7269
▁क्विन्टल	-10.7272
▁स्नान	-10.7273
ची	-10.7273
▁दाउरा	-10.7277
▁योग्यता	-10.728
▁एशियाली	-10.7281
▁दिदी	-10.7285
▁किम	-10.7287
▁थप्ने	-10.7295
▁विश्वविद्यालयका	-10.7295
▁वकिल	-10.73
▁गोदावरी	-10.7303
▁गहुँ	-10.7305
▁काट्ने	-10.7313
▁ओम	-10.7319
▁है	-10.732
▁नपाएर	-10.732
▁मारिएका	-10.7323
▁असुल	-10.7332
▁निस्कने	-10.7334
▁भुटान	-10.7336
▁कांग्रेसलाई	-10.7342
▁गरेँ	-10.7348
▁नागरिकहरु	-10.735
▁एकजुट	-10.735
▁कमिसन	-10.7351
▁बस्दा	-10.7352
▁गर्नेहरु	-10.7355
सुकै	-10.7357
▁तत्कालिन	-10.7369
▁राजतन्त्र	-10.7369
▁अग्रसर	-10.7371
▁बाहेकका	-10.7373
▁अप्ठेरो	-10.7373
▁दण्ड	-10.7373
▁प्रतिफल	-10.7374
▁अवस्थित	-10.7376
▁महादेव	-10.7377
▁भानुभक्त	-10.7377
▁जनरल	-10.7379
▁गर्नसक्ने	-10.7381
ाका	-10.7382
▁व्यापारीले	-10.7385
▁क्रस	-10.7395
▁खसे	-10.7402
▁मीन	-10.7403
▁जबर्जस्ती	-10.7407
▁जेभी	-10.7407
▁उनमा	-10.7413
▁कालिका	-10.7414
▁उपकुलपति	-10.742
▁साथीहरू	-10.742
▁टेवा	-10.7421
▁कोटा	-10.7425
▁नाच	-10.7426
▁ढल	-10.7432
ार	-10.7433
▁किन्ने	-10.7438
▁काट्न	-10.7443
ऊ	-10.7444
▁सयौँ	-10.7445
▁उपाध्यक्षमा	-10.7445
▁सन्देशमा	-10.7447
िरहेका	-10.7449
▁नैतिक	-10.7456
▁गेट	-10.7461
▁पेरिस	-10.7464
ग्रस्त	-10.7466
▁ट्याक्टर	-10.7473
▁गायिका	-10.7477
▁लगानीको	-10.7478
▁भईसकेको	-10.7478
▁वक्तव्य	-10.7482
पूर्व	-10.7484
▁उन्मुख	-10.7486
▁यादवको	-10.7487
▁गोकर्ण	-10.749
▁किनबेच	-10.7491
▁सचिवमा	-10.7494
▁कान्तिपुर	-10.7496
▁लेखन	-10.7497
▁त्यसबारे	-10.7499
▁चट्याङ	-10.7513
▁पिता	-10.7514
▁दशमलब	-10.7514
▁स्यानिटाइजर	-10.7515
▁किसानहरु	-10.7524
▁परिकार	-10.7527
▁अनुसन्धानमा	-10.7533
▁चारवटा	-10.7534
▁रक्तचाप	-10.7538
▁मिथिला	-10.754
▁लिम्बू	-10.7542
▁पक्षीय	-10.7544
▁डढेलो	-10.7545
▁भंग	-10.7546
▁युनिट	-10.7551
▁पुर्याउने	-10.7553
▁पारस	-10.7554
▁खोजेका	-10.7558
▁जथाभावी	-10.7562
▁सकिन्न	-10.7563
▁भेगमा	-10.7563
▁सर्वदलीय	-10.7565
्छन्	-10.7567
▁अरुको	-10.757
▁दाइ	-10.7574
▁जानकी	-10.7583
▁प्रतिगमन	-10.7587
▁फेर्न	-10.7589
▁सार्ने	-10.7593
▁साथीहरु	-10.7596
▁सम	-10.7598
▁जङ्गल	-10.7604
▁युग	-10.7605
▁मुल्य	-10.7606
▁समाजसेवा	-10.761
▁६००	-10.7611
▁अस्तित्व	-10.7615
▁शीर्षकमा	-10.7617
▁भनिने	-10.7618
▁न्यायपालिका	-10.7623
▁मान्न	-10.7631
▁देखाएका	-10.7634
▁प्रसंग	-10.7634
्दा	-10.7634
▁विश्वप्रकाश	-10.7635
▁वृद्धिदर	-10.7636
▁भण्डारीको	-10.7646
वादी	-10.7646
▁मन्त्रीले	-10.7651
खे	-10.7655
▁बनाउँछ	-10.7655
▁पदमार्ग	-10.7657
▁नेम्वाङले	-10.7659
▁२५०	-10.7659
▁देखेपछि	-10.7663
▁क्याम्प	-10.7666
▁अध्ययनका	-10.7666
दिने	-10.7669
▁सद्भाव	-10.768
▁दुख्ने	-10.7681
▁एकदिवसीय	-10.7682
▁नोभेम्बर	-10.7685
▁कुशल	-10.7692
गरि	-10.7693
▁कन्टेनर	-10.7697
▁लगाइने	-10.7704
▁नरेश	-10.7706
▁नाकाबन्दी	-10.7707
▁संस्करणको	-10.7714
▁म्यानमार	-10.7715
▁एसएसपी	-10.7717
▁मिडियामा	-10.7717
▁पुनर्स्थापना	-10.7719
▁गाँजा	-10.7725
▁नेकपाले	-10.7727
्यो	-10.7728
▁पुँजीगत	-10.7728
▁चलायमान	-10.773
▁एकैदिन	-10.7731
▁बढेकाले	-10.7732
▁गौरवको	-10.7732
▁प्रतिकूल	-10.7736
▁गठबन्धनका	-10.7739
▁ट्रेड	-10.7739
▁हेलिकोप्टर	-10.7746
▁ल्याब	-10.7753
▁शंकास्पद	-10.7754
▁आस्था	-10.7755
माझ	-10.7756
मय	-10.7757
म्	-10.7758
्या	-10.7761
▁लिगा	-10.7766
▁बोकेका	-10.7767
▁रक्षाका	-10.7772
▁मालिक	-10.7775
▁देशहरु	-10.7781
▁संयोजन	-10.7786
▁झापामा	-10.7788
▁लाल	-10.7791
▁हलमा	-10.7799
▁किसिम	-10.78
▁कफी	-10.7804
▁खटिने	-10.7804
▁ल्याउनुपर्ने	-10.7805
▁आधिकारिकता	-10.7809
▁बगाए	-10.781
▁चौका	-10.7817
▁डुबानमा	-10.7818
▁प्रेरित	-10.782
▁व्यक्तिहरू	-10.782
▁चाड	-10.7821
▁बलिङ	-10.7821
▁बालिकालाई	-10.7822
▁नागरिकसँग	-10.7823
▁आदेशमा	-10.7825
▁प्रक्षेपण	-10.7827
▁सास्ती	-10.7827
▁बाँच्न	-10.7828
▁पाउँछन्	-10.7828
▁साझेदार	-10.7829
▁दस्तावेज	-10.783
▁वरिपरि	-10.7831
▁शोक	-10.7835
▁असुली	-10.7835
▁प्रेरणा	-10.7843
▁उठाउँदै	-10.7852
▁गौरव	-10.7854
▁सर्वोच्चमा	-10.7858
▁युवती	-10.7859
▁छाडेको	-10.786
▁अरुलाई	-10.7861
▁दुबई	-10.7863
▁मैत्रीपूर्ण	-10.7877
▁होलान्	-10.7879
▁रायमाझी	-10.788
▁कँडेल	-10.788
▁केभी	-10.7881
▁अक्टोबर	-10.7881
▁सकिन	-10.7882
▁केस	-10.7882
▁हप्तामा	-10.7882
▁सर्प	-10.7883
▁अलिकति	-10.7884
'	-10.7884
▁बनाइने	-10.7885
▁नेतृ	-10.7889
▁लेख	-10.7889
▁दशरथ	-10.79
▁भिडभाड	-10.79
▁जापानी	-10.7914
▁दलाल	-10.792
ामा	-10.7922
▁कारोबारमा	-10.7923
▁बढ्यो	-10.7926
▁बढीमा	-10.7929
▁चरा	-10.7929
▁बनाउनका	-10.7931
▁आयोगलाई	-10.7933
▁साधारणसभा	-10.7938
ीक	-10.7939
ाइएको	-10.7944
▁मातहतका	-10.7944
▁स्थानका	-10.7944
▁अर्कोतिर	-10.7948
▁थुना	-10.7948
▁प्रलोभन	-10.795
▁विक्री	-10.795
▁आफूहरुको	-10.7951
▁बस्नुपर्ने	-10.7952
▁मधुमेह	-10.7955
ेज	-10.7955
▁महसुल	-10.7957
▁जाति	-10.7961
▁फागुनमा	-10.7961
▁जर्मन	-10.7966
▁ठाकुरले	-10.797
▁२०१४	-10.7978
दिशामा	-10.798
सि	-10.7982
▁सेनालाई	-10.7986
▁प्रज्ञा	-10.7989
▁तहबाट	-10.7989
▁सहमतिको	-10.7993
८	-10.7997
▁सर्वाेच्च	-10.7999
▁त्यसयता	-10.8001
▁किट	-10.8003
▁सञ्जालमार्फत	-10.8005
▁मकर	-10.8005
▁कमाइ	-10.8006
▁जीवित	-10.8009
▁कीर्तिपुर	-10.8013
▁ऐनमा	-10.8016
▁मित्र	-10.8017
▁मंसिरमा	-10.8019
▁दीपेन्द्र	-10.8026
▁भनिएका	-10.8027
मुलक	-10.8031
▁विषादी	-10.8049
▁राखिने	-10.8053
भे	-10.8054
▁भाइरसविरुद्ध	-10.8056
▁बढ्नुपर्ने	-10.8059
▁सीमामा	-10.8061
▁बासिन्दाले	-10.8062
▁बर्दिवास	-10.8066
▁आश्रम	-10.8071
९	-10.8071
▁खाजा	-10.8074
▁कसिलो	-10.8074
▁समानान्तर	-10.8074
▁प्रमाणीकरण	-10.8075
▁जगत	-10.808
▁गुरुयोजना	-10.8081
▁सुगर	-10.8089
▁किनेर	-10.809
▁पीएसजी	-10.8095
▁यथावत	-10.8097
▁संज्ञा	-10.8099
▁आयुर्वेद	-10.8105
▁उद्योगको	-10.8109
▁हिन्दु	-10.8115
▁उत्पादनको	-10.8116
▁जानकार	-10.812
▁सिलवाल	-10.8126
▁जमिनमा	-10.8128
▁हिँड्ने	-10.8133
▁गरिमा	-10.8135
ेड	-10.8136
▁लड्ने	-10.8138
▁बहुमतको	-10.8143
▁भक्तपुरका	-10.8144
जलेर	-10.8145
पटक	-10.8145
▁कुराको	-10.8147
▁राम्र	-10.8149
▁टोकियो	-10.8149
▁मोर्चा	-10.8161
▁गौतमका	-10.8165
▁सनाखत	-10.8175
▁लगाउँदा	-10.8175
▁घरजग्गा	-10.8175
▁नेकपाभित्र	-10.8182
तो	-10.8184
▁माफी	-10.8187
▁कामपा	-10.8191
▁दिशा	-10.8196
▁यद्यप	-10.8198
▁कुवेत	-10.8199
▁नवनियुक्त	-10.82
▁सक्दैनन्	-10.8203
▁रोशन	-10.8205
▁दिनयता	-10.8207
▁जीवनको	-10.8209
▁पाल	-10.8213
▁बन	-10.8217
▁महाधिवेशनबाट	-10.822
▁किनारा	-10.822
▁आचारसंहिता	-10.8222
▁बोरा	-10.8223
▁लिम्पियाधुरा	-10.8228
▁दिल्लीमा	-10.8246
▁चिह्न	-10.825
▁षड्यन्त्र	-10.825
▁घट्ने	-10.8256
▁भागे	-10.8258
▁प्रधानाध्यापक	-10.826
▁महालेखा	-10.8263
▁पोषण	-10.8269
▁बसिरहेका	-10.8269
▁कृषिमा	-10.8269
▁दिनुभएको	-10.827
▁भिन्न	-10.8271
▁कँडेलले	-10.8272
▁तिर्ने	-10.8272
▁मनमुटाव	-10.8276
▁बढाउँदै	-10.8277
▁रनमा	-10.8277
▁बुझेर	-10.8283
▁समूहबाट	-10.8283
▁आक्रमणबाट	-10.8287
सु	-10.829
▁तहसम्म	-10.8292
▁आर्सनल	-10.8293
▁सम्बन्धि	-10.8295
▁फैलिए	-10.8295
▁गराइने	-10.8301
▁मजबुत	-10.8302
▁सभाका	-10.8302
▁अधिकारीलाई	-10.8306
▁रेल्वे	-10.8307
▁भगवान्	-10.8308
▁प्रयासमा	-10.8309
▁लेख्ने	-10.8312
▁रिस	-10.8314
िन्छ	-10.8316
▁सहमहामन्त्री	-10.832
▁लेख्न	-10.8321
▁मिलान	-10.8324
▁बाइडेनले	-10.8327
▁ओसारपसार	-10.8327
▁उदय	-10.8343
▁कमाएको	-10.8344
▁परि	-10.8348
▁फिफा	-10.8352
▁तत्व	-10.8352
▁लुगा	-10.8354
▁अनुपस्थित	-10.8354
हरुसँग	-10.8356
▁वैचारिक	-10.8356
▁यू	-10.8357
▁गर्दैछन्	-10.8358
▁विधा	-10.836
▁अर्कै	-10.8361
▁मानसिकता	-10.8362
▁काठमाडौंबाट	-10.8369
वि	-10.8371
▁अर्जेन्टिना	-10.8374
▁फर्काए	-10.8376
▁बिभिन्न	-10.8379
▁चलखेल	-10.8379
▁निरौला	-10.8379
▁बढ्दा	-10.8379
▁करदाता	-10.8381
▁पेनाल्टी	-10.839
▁उमेरका	-10.8391
गाउँ	-10.8392
▁दाहालनेपाल	-10.8393
▁निकासा	-10.8395
ङ्ग	-10.8397
▁थ्री	-10.8399
▁खुमलटार	-10.8405
▁पूर्वअध्यक्ष	-10.8405
▁अत्याधुनिक	-10.8408
▁आफन्तले	-10.8411
▁दिन्छन्	-10.8412
▁लाइनमा	-10.842
माथिको	-10.8427
▁अन्दाज	-10.8431
▁माला	-10.8435
▁ठाउँका	-10.8436
▁तिर	-10.844
▁साहित्यकार	-10.8444
्ग	-10.8445
▁तीज	-10.8446
▁बहिनी	-10.8448
▁ल्याउनु	-10.8448
▁सर्त	-10.8449
▁त्यहि	-10.8451
▁लेखाइमा	-10.8453
▁अग्नि	-10.8454
▁घोराही	-10.8457
▁रेमिट्यान्स	-10.8461
▁विश्वस्त	-10.8473
देव	-10.8476
ुस्	-10.8482
▁२०२२	-10.8484
▁महिनावारी	-10.8484
पन	-10.8484
▁भित्र्याउन	-10.8485
▁कोसिस	-10.8486
▁गराउनुपर्ने	-10.8486
▁भइसकेपछि	-10.8488
▁मेची	-10.8488
▁ह्वाइट	-10.8488
▁तीनजना	-10.8489
▁बिहानैदेखि	-10.8491
ुपरेको	-10.8494
▁कमरेड	-10.8495
▁हुनासाथ	-10.8496
▁कवि	-10.8498
▁ऋषि	-10.85
▁सयौं	-10.85
▁किनार	-10.8507
▁सङ्घर्ष	-10.8509
▁कहीँ	-10.851
▁चाहनेहरु	-10.8515
▁कुम्भ	-10.8515
▁भो	-10.8521
छु	-10.8522
▁संरचनामा	-10.853
▁सातै	-10.8533
▁बन्दरगाह	-10.8534
▁रुघाखोकी	-10.8535
▁सूर्योदय	-10.8535
▁दिमाग	-10.8535
▁अनियन्त्रित	-10.8536
▁न्यायालय	-10.8536
▁कार्यक्रमहरु	-10.8536
▁डरले	-10.854
वो	-10.8541
ाउने	-10.8542
▁हङकङ	-10.8549
▁भइन्	-10.855
▁व्यवहारमा	-10.8558
्छ	-10.8558
ये	-10.856
▁जनयुद्ध	-10.8561
▁दुग्ध	-10.8561
▁थपलिया	-10.8564
▁दलीय	-10.8566
ृ	-10.8574
▁नियत	-10.8574
▁डोजर	-10.8577
▁चीनसँग	-10.8579
▁लगाई	-10.8584
▁विचाराधीन	-10.8588
▁ह्वात्त	-10.859
▁घातक	-10.8592
▁काँग्रेसले	-10.8592
▁कैलालीका	-10.8592
▁चिकित्सकको	-10.8592
बि	-10.8593
▁राहदानी	-10.8593
▁हिमपातको	-10.8594
▁गुमाए	-10.8599
▁आलम	-10.8608
▁भूकम्पपछि	-10.861
▁युथ	-10.8615
▁सिंहदरबारमा	-10.8616
▁प्रतिवादी	-10.8616
▁क्यापिटल	-10.8617
▁अलैँची	-10.8618
▁हुलाकी	-10.862
▁कन्या	-10.862
▁कस्ता	-10.8624
▁अटो	-10.8625
▁छापावाल	-10.8627
▁तपाईँको	-10.863
▁हालेर	-10.8634
▁गोकुल	-10.8637
▁तिर्नुपर्ने	-10.864
▁मोटरसाइकलमा	-10.8641
▁जानुपर्छ	-10.8645
▁अभियानका	-10.8645
▁अंग्रेजी	-10.8645
▁दुरी	-10.8647
▁पूर्णरूप	-10.8649
▁जोगिन	-10.8649
▁सञ्चारमाध्यमहरु	-10.8653
▁मर्यादा	-10.8655
▁स्वभाव	-10.8655
▁बाहिरिएको	-10.8661
▁बाँकेका	-10.8662
▁शो	-10.8665
▁तर्जुमा	-10.8667
▁म्यानचेस्टर	-10.8667
▁अफिस	-10.8673
▁वेस्ट	-10.8675
▁मार्न	-10.868
द्वय	-10.8689
▁पक्षसँग	-10.8691
▁सोधपुछ	-10.8694
बाहिर	-10.8696
▁अर्घाखाँची	-10.8705
▁देख्दा	-10.871
▁हैसियतमा	-10.871
▁जंगल	-10.8718
▁कर्पोरेसन	-10.872
▁२०६८	-10.8723
▁प्रतिभा	-10.8725
▁प्रधानसेनापति	-10.8729
▁दमन	-10.8734
शुक्रबार	-10.8744
▁उठ्न	-10.8746
▁सिजनमा	-10.8747
▁व्याप्त	-10.8747
▁नेत्रविक्रम	-10.8747
▁साटो	-10.8748
▁नापी	-10.8749
▁जुट्न	-10.8753
▁मान्छेले	-10.8755
▁गुम्बा	-10.876
▁टेक	-10.8761
▁रोड	-10.8766
▁टिभी	-10.877
▁भ्याक्सीन	-10.8774
▁समापन	-10.8774
▁यतिखेर	-10.8774
▁हुनुहुन्थ्यो	-10.8778
▁विविधता	-10.8778
▁पिउने	-10.8779
▁नेत्र	-10.8779
▁भिटामिन	-10.8781
▁तोक्ने	-10.8781
▁लडाकू	-10.8786
▁देशबाट	-10.8788
▁लु	-10.8788
▁मृत्युदर	-10.8789
▁अधिकारीका	-10.8793
▁गर्नेगरी	-10.8793
▁पुगिसकेको	-10.8796
▁क्यामेरा	-10.8799
▁नत्र	-10.8805
▁लि	-10.8806
ुवा	-10.8811
▁रेशम	-10.8814
▁रसुवागढी	-10.8818
▁फुल	-10.8826
चो	-10.8827
▁ओझा	-10.8828
ढा	-10.8828
▁कास्य	-10.8829
▁उल्ट	-10.883
पर्ने	-10.8832
▁सकेर	-10.8833
▁आराम	-10.8837
▁बुझिएको	-10.8839
▁नगरेका	-10.884
▁बलात्कारपछि	-10.8842
▁शेख	-10.8845
▁वनमा	-10.8851
▁धान्न	-10.8852
▁तटबन्ध	-10.8854
▁छनौट	-10.8855
▁गराउँदा	-10.8855
बुधबार	-10.8856
खेतमा	-10.8863
▁तोकिएका	-10.8863
▁बहानामा	-10.8875
▁दुःखद	-10.8876
▁इन्द्र	-10.8877
▁कोभिडका	-10.8877
▁गो	-10.8879
▁मान	-10.8879
▁देखिएन	-10.888
▁दिनहुँ	-10.8883
▁देखेको	-10.8893
▁रक्सी	-10.8895
▁गुप्ता	-10.8897
▁कांग्रेसमा	-10.8898
▁संरक्षणमा	-10.8899
▁एसोसिएसन	-10.89
▁विवादका	-10.8902
▁छात्रवृत्ति	-10.8902
▁पठाए	-10.8907
▁आपराधि	-10.8908
▁पुसमा	-10.891
▁टिपर	-10.8911
▁काटेर	-10.8911
▁निर्देश	-10.8911
▁खोकी	-10.8912
सोमबार	-10.8913
▁संखुवासभा	-10.8919
▁धनु	-10.892
▁नारायणगढ	-10.8922
▁गाडीमा	-10.8924
▁सिलिण्डर	-10.8936
▁भन्नुहुन्छ	-10.8937
▁गरियोस्	-10.8939
▁निषेधाज्ञाको	-10.8941
४०	-10.8944
▁कैलालीमा	-10.8945
▁श्रमिकको	-10.8946
▁बिन्दुमा	-10.8947
मारमा	-10.8947
▁चुनौति	-10.8948
▁गरेन	-10.8949
▁वर्षयता	-10.895
▁कोरियामा	-10.895
▁शुरुआत	-10.8956
▁प्रतिकेजी	-10.8963
▁अर्पण	-10.8964
▁आरोही	-10.8964
▁त्यसमाथि	-10.8969
शन	-10.8973
▁रोगबाट	-10.8977
▁दिइसकेको	-10.8977
▁माहोल	-10.8979
▁अद्यावधिक	-10.8986
▁आठौं	-10.8991
▁तोडफोड	-10.8991
▁प्रचलित	-10.8991
▁भरोसा	-10.8991
▁संगठनका	-10.8991
▁प्रतिनिधिमण्डल	-10.8991
▁थपिए	-10.8992
▁राख्दा	-10.8998
▁केदार	-10.9003
▁अमृत	-10.9005
▁छाप	-10.9006
▁सातामा	-10.9008
▁खोज्दै	-10.9015
▁पराजय	-10.9018
▁अन्याय	-10.9019
▁त्रुटि	-10.902
▁प्रविधिमन्त्री	-10.902
▁जलेश्वर	-10.9021
▁गुमाउने	-10.9033
▁खुलेर	-10.9035
▁माग्ने	-10.9038
▁हाने	-10.9039
▁साथबाट	-10.9041
▁उनीसँग	-10.9042
४५	-10.9047
▁उठेका	-10.905
▁आठौँ	-10.9051
▁भन्नुभएको	-10.9056
पानी	-10.9064
▁लिँदा	-10.9066
▁प्यानल	-10.9073
▁नियामक	-10.9074
▁माइतीघर	-10.9074
ास्पद	-10.9075
▁बोक्ने	-10.908
▁जन्मदिन	-10.9082
▁भुवन	-10.9083
▁कोटेश्वर	-10.9085
▁हिँड्न	-10.9085
सकेको	-10.9085
▁जाम	-10.9094
▁कमाउने	-10.9101
▁समृद्धिका	-10.9102
▁सेन्ट	-10.9102
▁गोठ	-10.9103
▁सन्दर्भ	-10.9107
▁लडेर	-10.9108
▁इन्टरनेशनल	-10.9115
▁विषम	-10.9116
▁गोष्ठी	-10.9117
▁सुरक्षामा	-10.9122
▁ज्ञापन	-10.9129
▁ब्यूरो	-10.9129
▁भरपर्दो	-10.9129
▁गुमाउँदै	-10.9129
▁प्रतिव्यक्ति	-10.9129
▁शमशेर	-10.913
▁वृद्धवृद्धा	-10.9131
▁पाइपलाइन	-10.9134
▁रवि	-10.9134
▁छाड्न	-10.914
▁जमीन	-10.9141
डु	-10.9142
▁वर्गका	-10.9143
▁अन्त्यमा	-10.9143
▁प्रकार	-10.9143
▁एम	-10.9143
आइतबार	-10.9144
▁वर्षाले	-10.9145
ोस्	-10.9151
▁हदसम्म	-10.9151
▁अन्तरक्रिया	-10.9154
▁प्रकृतिका	-10.9154
▁गरिनु	-10.9155
▁तसर्थ	-10.9157
▁चेकजाँच	-10.9157
▁तालमेल	-10.9157
▁कम्पनीहरू	-10.917
▁प्यालेस	-10.917
▁राईको	-10.9173
▁सबैमा	-10.9174
▁शक्तिको	-10.9177
▁मुल	-10.9182
▁दाँत	-10.9185
▁सुरज	-10.9187
▁चारजना	-10.9189
▁कता	-10.9189
▁माडी	-10.9189
▁दुख	-10.9193
▁साइट	-10.9194
▁लागिरहेको	-10.9194
▁परीक्षामा	-10.9194
▁बढिरहेका	-10.9198
▁प्रतिष्ठा	-10.9199
▁पुष्प	-10.9201
▁विस्तारका	-10.9203
▁डीएसपी	-10.9209
▁बेचबिखन	-10.9209
▁कैलाश	-10.9213
▁आमाले	-10.9217
▁प्रतिदिन	-10.9223
▁परिषद्ले	-10.9225
▁सदर	-10.9232
▁भक्तपुरको	-10.9233
▁नभइ	-10.9237
▁निर्भर	-10.9239
▁सीमावर्त	-10.9244
▁संघसंस्था	-10.9245
▁पक्षधर	-10.9245
रण	-10.9254
▁उपयोगी	-10.9254
▁स्वाद	-10.9257
▁निरुपण	-10.9269
▁पुरस्कृत	-10.9269
चापीय	-10.9278
▁रानी	-10.9279
▁भित्रिएको	-10.9288
▁प्रसिद्ध	-10.9289
▁स्थलमा	-10.9291
▁जटिलता	-10.9297
▁दुर्व्यवहार	-10.9297
▁अर्धशतक	-10.9297
▁बर्सेनि	-10.9297
▁बैंकिङ्ग	-10.9302
▁सङ्घले	-10.9305
▁जोगाउने	-10.9307
▁अरुभन्दा	-10.9307
▁घटाउने	-10.931
▁निवेदक	-10.931
▁भारु	-10.931
▁बीबीसी	-10.9311
एक	-10.9311
▁अपरान्ह	-10.9312
ाउँदै	-10.9313
▁शशांक	-10.9316
▁कीर्तिमान	-10.9318
▁याएर	-10.9322
▁ध्वस्त	-10.9326
▁रेडक्रस	-10.9326
▁अग्रवाल	-10.9326
▁एकतर्फी	-10.9326
▁नवौं	-10.9327
▁मन्त्रालयबाट	-10.9329
▁पदम	-10.9329
▁अवस्थाबारे	-10.9339
▁स्वरोजगार	-10.9342
▁रामेछाप	-10.9347
▁ओलीका	-10.9348
ः३०	-10.9349
▁गर्भपतन	-10.9354
▁यसबीच	-10.9354
▁महेन्द्रनगर	-10.9356
पत्र	-10.9356
▁वायुको	-10.936
▁वाग्ले	-10.936
▁आयोजनाबाट	-10.9361
▁अन्न	-10.9368
▁चिज	-10.9373
▁नाराबाजी	-10.9375
▁१२०	-10.9375
▁परिवर्तनका	-10.9375
▁भावमा	-10.9376
्ड	-10.9377
▁गर्भ	-10.9377
▁छैनौँ	-10.9381
▁एकेडेमी	-10.9382
▁ओमान	-10.9382
▁सिमित	-10.9382
▁अजय	-10.9382
▁बताउनुभएको	-10.9383
▁देखाउँछ	-10.9383
▁आइपुग्दा	-10.9383
वार	-10.9385
▁आकांक्षा	-10.9398
▁युट्युब	-10.9401
▁विज्ञहरू	-10.9404
▁पाँचौं	-10.941
▁तरुण	-10.9411
▁फाउन्डेसन	-10.9411
▁कट्टेल	-10.9411
▁करेन्ट	-10.9412
▁रसिया	-10.9414
▁भावी	-10.9415
▁कार्यसम्पादन	-10.9415
▁घण्टाको	-10.9415
▁गीता	-10.9415
▁टिममा	-10.9418
▁आपस	-10.942
▁निर्णयमा	-10.9428
▁याएका	-10.9433
▁रोकेको	-10.9439
▁पालामा	-10.9442
▁व्यवस्थापक	-10.9443
▁हिउँदे	-10.9445
▁सालदेखि	-10.9446
▁कर्जाको	-10.9446
▁घरायसी	-10.9446
▁प्रशारण	-10.9449
▁लगाएपछि	-10.9458
▁साफ	-10.9467
▁अन्तरिक्ष	-10.9468
▁वल्डोमिटर	-10.9468
▁प्रतिलिटर	-10.9468
▁त्यसतर्फ	-10.9469
▁२०७०	-10.947
▁मौसमी	-10.9476
▁रचना	-10.9476
▁गाउँमै	-10.9477
▁तपाईंहरु	-10.9478
▁ट्रयाक	-10.9478
▁उद्यान	-10.9483
▁गठनका	-10.9483
▁चाहन्छ	-10.9492
▁यथा	-10.9495
▁आरोपित	-10.9497
▁अव्यवस्थित	-10.9497
▁बाढीपहिरो	-10.9497
▁जिज्ञासा	-10.9498
▁ब्रान्ड	-10.9499
▁कार्यकालमा	-10.95
▁अग्निप्रसाद	-10.95
▁महासमिति	-10.9501
▁काफ्लेले	-10.9503
▁उठेर	-10.9505
▁यौं	-10.9505
मू	-10.9508
▁गइसकेको	-10.9509
▁खरेलले	-10.9512
१९	-10.9513
▁युभेन्टस	-10.9514
▁विधेयकमा	-10.9517
▁गरेनन्	-10.9519
▁पुर्याउन	-10.9522
▁राजमार्गमा	-10.9523
▁अन्त	-10.9523
▁दसैं	-10.9524
▁खाँचो	-10.9526
विपरीत	-10.9531
▁समयावधि	-10.9532
▁दाम	-10.9533
▁सहभागि	-10.9537
खो	-10.9546
िमा	-10.9546
▁सुरुवाती	-10.9546
▁रुपैया	-10.9554
▁अध्यापन	-10.9555
▁चार्टर्ड	-10.9555
▁बहुदलीय	-10.9556
▁राजस्थान	-10.9556
▁तुला	-10.9556
▁बुक	-10.9557
▁क्षण	-10.956
▁फलाम	-10.9562
▁प्रतिकिलो	-10.9562
▁तत्कालका	-10.9566
▁झन	-10.9568
▁माल्दिभ्स	-10.9569
▁प्रतिशतमा	-10.9574
▁आइपुगेका	-10.9574
▁मेलामा	-10.9577
▁गोर्खा	-10.9581
यस	-10.9582
▁सौर्य	-10.9584
▁हाराहारी	-10.9587
▁जिप	-10.9589
▁लोकसेवा	-10.9591
▁७००	-10.9592
▁बन्दुक	-10.9593
▁लोडसेडिङ	-10.9595
▁नायिका	-10.9596
▁मित्रता	-10.9599
▁कहिलेकाहीँ	-10.9604
▁थलो	-10.9605
▁लाग्नु	-10.9608
▁सडकबाट	-10.961
▁दाजु	-10.9611
▁मन्त्रिमण्डल	-10.9613
▁सलमान	-10.9614
▁लेखराज	-10.9616
▁बाहिरका	-10.9618
▁हेरिएको	-10.962
▁नृत्य	-10.9621
पू	-10.9621
▁रङ्गशाला	-10.9626
▁थारू	-10.9627
▁तोकिए	-10.9628
कोट	-10.9633
▁जनआन्दोलन	-10.9634
▁रोगी	-10.9636
▁सिभिल	-10.9636
▁सम्भाव्यता	-10.9637
▁परिकल्पना	-10.9643
▁पोख्रेल	-10.9643
▁हेलम्बु	-10.9643
▁नरहने	-10.9644
▁स्वभाविक	-10.9645
▁बढाए	-10.9646
▁कुँवरले	-10.965
▁गणेशमान	-10.9654
▁औ	-10.9656
▁सुर्खेतमा	-10.9659
▁नसकेर	-10.966
▁बेल्जियम	-10.9662
▁तिमिल्सिनाले	-10.9665
▁जातका	-10.9667
३०	-10.967
▁सृजना	-10.9672
▁सोसाइटी	-10.9672
▁बेरुजु	-10.9672
▁रोपाइँ	-10.9672
▁बद्री	-10.9672
▁सिनियर	-10.9672
▁मुहान	-10.9676
▁स्वकीय	-10.9677
▁वैज्ञानिकहरु	-10.9679
▁आफ्न	-10.968
▁गतिविधिमा	-10.9686
▁निकालिएको	-10.9687
▁सदनमा	-10.9687
▁पश्चात	-10.9692
▁घटनालाई	-10.9692
▁छलफलपछि	-10.97
▁भइसक्यो	-10.9702
▁दीप	-10.9703
ाएर	-10.9707
▁बजेका	-10.9716
▁सङ्घसंस्था	-10.9717
▁प्रणालीलाई	-10.9719
▁मागेका	-10.9721
▁उनीहरुका	-10.9722
▁बढाउनु	-10.9725
▁दौड	-10.9725
▁गर्नुस्	-10.9729
▁आयातमा	-10.9732
▁तपाईंलाई	-10.9734
▁तेह्रथुम	-10.9734
▁भेदभाव	-10.9739
▁ट्याक्सी	-10.9742
▁सहरमा	-10.9743
▁कम्पनीसँग	-10.9747
▁हिंसात्मक	-10.9748
▁चौधरीको	-10.9749
ाउँदा	-10.975
▁छाडेका	-10.9752
▁विमल	-10.9755
▁भिड	-10.9759
▁सरिता	-10.9761
▁मुख्यालय	-10.9761
▁ग्राहकहरु	-10.9762
▁साउनमा	-10.9763
▁स्नातक	-10.977
▁पात	-10.9773
▁बुँदा	-10.9776
▁उसका	-10.9779
▁चैतमा	-10.9787
▁नपुगेको	-10.9789
▁कृति	-10.9789
▁चेन्नई	-10.979
▁मिथुन	-10.979
▁सौराहा	-10.9791
▁यसबाहेक	-10.9792
▁टेन्डर	-10.9798
▁बित्तिकै	-10.9799
▁पाँचौ	-10.98
▁बस्दैछ	-10.9801
▁इञ्जिनीयर	-10.9803
▁चलचित्रको	-10.9806
▁महान	-10.9807
▁भि	-10.9811
▁सार्क	-10.9816
▁चन्द्रमा	-10.9818
▁अनुसन्धानबाट	-10.9818
▁महाराजगञ्ज	-10.982
▁नोबेल	-10.982
▁जीर्ण	-10.982
▁धार	-10.982
▁नेताहरूको	-10.9823
प्रतिको	-10.9826
▁०७६	-10.9827
▁राउटे	-10.9829
▁खेल्नेछ	-10.9839
▁अंश	-10.9841
▁उहाँहरुले	-10.9849
▁मिलेमतो	-10.985
▁वागमती	-10.985
▁पर्दै	-10.9851
▁जन्मिएका	-10.9856
▁दूरीमा	-10.9856
▁सञ्जय	-10.9863
▁छेउमा	-10.9864
▁स्वर्ग	-10.9866
▁विमानस्थलबाट	-10.9868
▁निर्देशनमा	-10.9874
▁कोलकाता	-10.9874
▁सुक्खा	-10.9876
▁बानियाँ	-10.988
▁ओमिक्रोन	-10.9883
▁एपिएफ	-10.9884
▁आर	-10.9885
कारण	-10.9888
▁लेख्दै	-10.9891
▁मान्छेको	-10.99
▁बसिरहेको	-10.9902
▁विराट	-10.9903
▁धरहरा	-10.991
▁चढेर	-10.9912
▁बुहारी	-10.9919
▁पर्छन्	-10.992
▁छोरीको	-10.9926
▁विगतको	-10.9929
▁निर्मित	-10.9932
बाबु	-10.9933
▁महत्वका	-10.9941
दत्त	-10.9947
▁विरामी	-10.9948
▁सेवाका	-10.9955
▁मेस्सी	-10.9956
▁भर्ने	-10.9957
▁ग्राहकलाई	-10.9963
▁भट्टराईको	-10.9967
िँदा	-10.9968
▁एटिएम	-10.997
▁कागती	-10.9972
▁अङ्ग	-10.9972
▁चोकमा	-10.9975
▁अन्यथा	-10.9975
▁लम्बाइ	-10.9975
▁सहयोगका	-10.9977
▁आइसियू	-10.9978
▁कहर	-10.9981
▁भित्र्याउने	-10.9981
प्राप्त	-10.9989
ेट	-10.999
▁सूचनामा	-10.999
▁मन्दी	-10.9991
▁पवित्र	-10.9991
▁जागरण	-10.9992
▁८००	-10.9992
▁नन्द	-10.9993
जू	-10.9994
▁सुकुम्बासी	-11
▁कालोबजारी	-11.0001
▁संस्थाहरू	-11.0002
▁बन्दीपुर	-11.0002
▁प्रेमको	-11.0003
आ	-11.0003
▁पायो	-11.0003
▁गर्छौँ	-11.0008
▁थपिने	-11.0015
▁बर्खास्त	-11.0023
▁जनादेश	-11.0023
▁दृष्टिले	-11.0026
मंगलबार	-11.003
▁प्लेट	-11.003
▁इच्छुक	-11.0031
▁ढोरपाटन	-11.0031
▁मार	-11.0045
हीन	-11.0048
▁अभावका	-11.0048
▁फर्काउन	-11.0053
▁सजग	-11.0056
▁गोदाम	-11.0061
▁आत्मसात	-11.0061
▁उत्सव	-11.0062
▁आआफ्नो	-11.0063
▁मर्का	-11.0066
▁प्रोजेक्ट	-11.0068
▁च्यानल	-11.0068
▁ह	-11.0069
▁तिरेर	-11.007
जसो	-11.0071
▁ल्याई	-11.0073
▁माथिका	-11.0074
▁खरिदमा	-11.0075
▁नेटवर्क	-11.0076
▁गरिदिने	-11.0076
▁उपन्यास	-11.0077
▁आउँदैन	-11.0077
▁शेरचन	-11.008
▁न्यानो	-11.0084
▁मैत्री	-11.0096
▁०७५	-11.0096
▁मुखमा	-11.0098
▁सम्पत्ती	-11.0098
▁भानु	-11.0099
▁अभियोग	-11.0101
▁देशहरू	-11.0101
▁सकिएन	-11.0108
▁गुरुङको	-11.0112
▁प्रदर्शनकारी	-11.0113
▁पाकिस्तानी	-11.0118
▁अभियानको	-11.0119
▁राजधानीको	-11.0122
▁कालिकोट	-11.0123
▁पृथ्वीनारायण	-11.0123
▁तिम्रो	-11.0125
▁पानीमा	-11.0126
डि	-11.0127
▁तेक्वान्दो	-11.0128
▁प्रमोद	-11.0129
▁ऋतु	-11.0132
▁योजनाको	-11.0134
▁बोली	-11.0135
६	-11.0139
मन	-11.0139
▁सार्न	-11.0144
▁चन्द्रागिरि	-11.0153
▁विपत्ति	-11.0153
▁उही	-11.0166
▁२०६४	-11.0172
▁शीर्षक	-11.0174
▁माथिबाट	-11.0178
▁बालाजु	-11.0184
▁चाहन्छन्	-11.0185
▁२०१३	-11.019
▁हुनै	-11.0195
िँदै	-11.0196
▁उन्नत	-11.0202
▁संगठित	-11.0204
▁सदा	-11.021
▁अवस्थाका	-11.0212
▁साबुन	-11.0215
▁निणर्य	-11.0215
▁बाँडफाँड	-11.0215
▁लोहनी	-11.0215
▁लाग्नुपर्ने	-11.0219
▁माओवादीका	-11.0225
▁कार्यकर्ताहरु	-11.023
▁कञ्चनपुरका	-11.023
▁हु	-11.0236
▁चन्दा	-11.0236
▁खाएको	-11.0239
▁सम्मिल	-11.0242
▁म्यान	-11.0245
▁राजिनामा	-11.0246
खी	-11.0246
▁दुरि	-11.0248
▁क्षतिग्रस्त	-11.0249
▁वर्षेनी	-11.025
▁गतिलो	-11.0254
▁गराइरहेका	-11.0256
▁गर्नै	-11.0258
▁मोटर	-11.0263
▁काठमाडौँको	-11.0274
▁सदस्यका	-11.0276
▁दवाव	-11.0277
▁गजुरेल	-11.0277
▁रहेन	-11.0282
▁खुवाउने	-11.0284
▁गौशाला	-11.0286
▁आश्रित	-11.0287
▁पाटो	-11.0288
▁११०	-11.0293
▁शिक्षामा	-11.0295
▁संकल्प	-11.0295
▁नायक	-11.0298
▁चाहिएको	-11.0299
▁धनगढीमा	-11.03
▁विदा	-11.0301
▁बिक्रिद	-11.0302
▁सारेका	-11.0306
▁यसवर्ष	-11.0313
▁सक्दो	-11.0316
▁निन्द्रा	-11.0317
▁भेटिए	-11.0325
▁घन्टामा	-11.0325
▁प्रथा	-11.0329
▁सिद्ध	-11.0333
भू	-11.0334
▁इन्जिनियरिङ	-11.0335
▁उपलब्धी	-11.0337
▁प्रशन्न	-11.0339
▁एकलौटी	-11.034
▁निस्कन	-11.034
▁आधुनिकीकरण	-11.0341
▁गरिसकेपछि	-11.0345
▁दिपक	-11.0348
▁व्यक्तिका	-11.035
▁सहप्रवक्त	-11.0352
▁खारेजी	-11.0352
▁डेरा	-11.0354
▁टीम	-11.0355
▁बर्दिबास	-11.036
▁ट्र्याक	-11.0366
▁गरेकै	-11.0368
▁प्रशिक्षणमा	-11.0369
संगै	-11.037
▁ट्रेडिङ	-11.0372
▁दोहन	-11.0372
▁इङ्ल्यान्ड	-11.0375
▁दुध	-11.0377
▁धरौटी	-11.0383
▁नगरिएको	-11.0384
▁निर्देशनालयका	-11.0392
▁हिँडेका	-11.0394
▁पर्यो	-11.0398
▁स्वरूप	-11.0399
▁मझौला	-11.0408
▁राष्ट्रका	-11.041
स्तरको	-11.0411
▁जंगलमा	-11.0411
▁पाण्डेय	-11.0415
▁राष्ट्रियसभामा	-11.0416
▁नेशनल	-11.0418
▁मेगावाटको	-11.0422
सामु	-11.0426
▁बाहिरिएका	-11.043
▁पुनस्र्थापना	-11.043
▁महालक्ष्मी	-11.0434
▁आईसोलेसन	-11.0435
▁पिसीआर	-11.0435
▁आरम्भ	-11.0435
▁कुरै	-11.0435
▁बाहिरिने	-11.0436
▁मारेको	-11.0437
▁भूमिगत	-11.0438
▁आत्म	-11.0439
▁आवासीय	-11.0442
▁दलसम्बन्धी	-11.0447
▁मन्त्रिपरिषद्ले	-11.0448
बिहीबार	-11.0453
▁निर्णयअनुसार	-11.0459
▁अभियन्ता	-11.0459
▁जङ्गलमा	-11.0459
▁बताउने	-11.0465
▁लागूऔषध	-11.0468
▁जोहो	-11.0468
▁रामपुर	-11.0472
▁सातौँ	-11.0475
▁एजेन्ट	-11.0475
▁शैया	-11.0477
▁माग्न	-11.0478
▁श्वासप्रश्वासमा	-11.0481
▁खाँदा	-11.0487
स्थल	-11.0496
▁बढाइने	-11.0497
▁गैरकानुनी	-11.0498
▁स्टेडियम	-11.0498
▁शोषण	-11.0498
▁बैंकबाट	-11.0499
▁दाल	-11.05
▁अधिवेशनमा	-11.05
▁खोज्नु	-11.0508
▁ब्रेक	-11.051
▁खुद	-11.0517
▁सुन्ने	-11.0517
▁बाँदर	-11.052
▁क्लबलाई	-11.0521
▁मणि	-11.0526
▁प्रश्नमा	-11.053
▁युभेन्ट्स	-11.053
▁रूपान्तरण	-11.053
▁फोक्सो	-11.053
▁निक्कै	-11.0531
▁मनमोहन	-11.0531
▁त्रिवेणी	-11.0536
▁खाए	-11.0537
▁पुग्नेछ	-11.0538
▁ज्योति	-11.0538
▁खोलेर	-11.0538
▁मु	-11.0539
▁मान्छेलाई	-11.0541
▁तुलना	-11.0541
▁लेखेर	-11.0544
▁सास	-11.0544
▁भारतबीच	-11.0546
ासाथ	-11.0546
▁अज्ञात	-11.0551
▁लोड	-11.0557
▁से	-11.0558
वाद	-11.0559
▁यती	-11.056
▁सत्तारूढ	-11.0562
▁मो	-11.0563
▁निवेदनमा	-11.0573
▁देवता	-11.0575
▁रोकिए	-11.0575
▁कैदी	-11.0578
▁उहाँका	-11.0582
▁उपज	-11.0591
▁लैङ्गिक	-11.0596
▁अन्तर्वार्ता	-11.0605
▁जङ्गली	-11.0605
▁वास्तवमा	-11.0606
▁टिमका	-11.0606
▁माइती	-11.0607
▁क्षेत्रभित्र	-11.0607
▁नेपालबीच	-11.0608
▁अचम्म	-11.0613
▁अन्तिममा	-11.0615
▁निकायसँग	-11.0623
▁वाइड	-11.0624
▁सम्पादक	-11.0625
घर	-11.0626
▁पवन	-11.0627
▁बहराइन	-11.063
▁देखाए	-11.0631
▁काफ्ले	-11.0632
▁आफन्तको	-11.0632
▁सेन्टरमा	-11.0633
▁प्लास्टिक	-11.0635
▁ठूल	-11.0638
डाँडा	-11.064
ुहुन्छ	-11.0645
▁भएनन्	-11.0652
▁रथ	-11.0654
▁सुस्त	-11.0656
▁परमादेश	-11.0659
▁पोजिटिभ	-11.0659
कला	-11.0659
▁नलिने	-11.0663
▁लिनुपर्छ	-11.0666
▁सुत्ने	-11.0666
१६	-11.0668
▁प्रसूति	-11.0669
▁बौद्धिक	-11.067
प्रकाश	-11.0679
▁कोइरालाको	-11.068
▁मसान्त	-11.0682
▁हुनुअघि	-11.0687
▁आँकलन	-11.0691
▁सोहीअनुसार	-11.0692
▁शुक्रराज	-11.0693
▁विज्ञहरु	-11.0693
▁जनही	-11.0694
राज्य	-11.0694
▁प्रक्रियाबाट	-11.0694
▁एमसिसी	-11.07
▁दिनेछ	-11.0701
▁संस्थाबाट	-11.0706
▁पार्वती	-11.0708
▁बुटवलमा	-11.0709
▁फारम	-11.0715
▁जापानमा	-11.0716
▁आँट	-11.0721
▁बुझेका	-11.0722
▁बहिष्कार	-11.0724
▁ठमेल	-11.0724
▁श्रेणी	-11.0724
▁जिन्दगी	-11.0724
▁बुझाइएको	-11.0725
▁गोरु	-11.0725
▁रावत	-11.073
▁जा	-11.0733
▁क्षेत्रसँग	-11.0735
▁पहिलेदेखि	-11.0744
▁मध्यपहाडी	-11.0746
▁नीतिमा	-11.0747
▁अगस्ट	-11.0752
▁मानन्धर	-11.0753
विना	-11.0754
▁अधिग्रहण	-11.0757
▁सुनसान	-11.0757
▁केयर	-11.0759
▁आप्रवासी	-11.0759
▁नपाएका	-11.0763
गामी	-11.0769
▁तेज	-11.0769
▁हिँडेको	-11.077
▁सवा	-11.0776
▁आइतबारदेखि	-11.0779
▁आमालाई	-11.0779
प्रतिस्पर्धात्मक	-11.078
▁सिंहको	-11.0782
▁केहीबेर	-11.0782
▁क्रिकेटमा	-11.0784
▁अनुगमनका	-11.0786
▁प्रसार	-11.079
कु	-11.0792
▁छुट्याइएको	-11.0795
▁२०७७७८	-11.0797
▁हिंसाका	-11.0797
्ला	-11.0797
▁दृष्टिकोणले	-11.0798
▁मानिसहरुको	-11.0801
▁प्याक	-11.0802
▁समस्याका	-11.0803
▁चिन्तन	-11.0805
▁पालो	-11.0806
▁विमला	-11.0807
▁उनीमाथि	-11.0807
▁जनामध्ये	-11.0812
▁जेष्ठ	-11.0816
▁घरभित्र	-11.0817
▁सुमधुर	-11.082
▁साँघुर	-11.0821
▁नर्सिङ	-11.0824
▁मसँग	-11.0827
▁दुर्भाग्य	-11.0827
▁नो	-11.0828
▁बनिरहेको	-11.083
▁उठाएर	-11.0831
▁शरद	-11.0832
▁अली	-11.0836
▁नवौँ	-11.0836
झैं	-11.0837
जंग	-11.0845
▁निम्न	-11.0846
▁रहोस्	-11.085
▁अविजित	-11.0855
▁असुरक्षित	-11.0855
▁ल्याउँदा	-11.0855
▁नागरिकका	-11.0856
▁कार्यभार	-11.0857
▁प्रक्रियालाई	-11.0857
▁फौजदारी	-11.0858
छौँ	-11.0859
▁रत्न	-11.0861
▁त्रिशूली	-11.0861
▁कर्कट	-11.0863
▁चल	-11.0866
▁नगर्नु	-11.0867
▁लाग्दै	-11.0868
▁श्वासप्रश्वास	-11.0879
▁तैनाथ	-11.088
▁वैधानिक	-11.0881
▁काण्ड	-11.0882
▁लाग्नेछ	-11.0883
▁कञ्चनपुरमा	-11.0884
▁रङ	-11.0884
▁आजबाट	-11.0888
▁बाग्मती	-11.0888
▁परास्त	-11.0889
▁लापरबाही	-11.0889
एका	-11.0893
एकीकृत	-11.0895
▁याली	-11.0895
▁बनाउनुपर्छ	-11.0899
▁तपाईहरु	-11.0907
▁पाईनेछ	-11.0909
▁बनाइएका	-11.091
▁अधिकारकर्मी	-11.0911
नगर	-11.0916
▁यसपछि	-11.0918
▁याइएको	-11.092
▁हराएका	-11.0922
▁त्रिपुरेश्वर	-11.0922
▁काबुल	-11.0922
▁पढ्नुहोस्	-11.0923
▁उल्लेखनीय	-11.0924
▁पार्छ	-11.0925
▁वरपर	-11.0925
▁भारतलाई	-11.0926
▁लेग	-11.0926
▁इराक	-11.093
शनिबार	-11.093
▁आत्मा	-11.0936
▁बेर	-11.094
▁जोमसोम	-11.0943
कू	-11.0945
▁प्रहरीमा	-11.0947
▁पञ्चायत	-11.0953
▁सुशान्त	-11.0955
▁आपतकालीन	-11.0955
▁हेर्नुहोस्	-11.0956
▁गोरखापत्र	-11.0957
कहाँ	-11.0957
▁छवि	-11.0957
▁वामपन्थी	-11.0959
▁ढुङ्गाना	-11.096
▁गणित	-11.0963
▁रमाईलो	-11.0964
▁बजारबाट	-11.0964
▁लाखसम्म	-11.0965
ुल	-11.0966
▁आफुले	-11.0967
▁जसपाले	-11.0968
▁चाइना	-11.0969
▁पठाएर	-11.0969
सू	-11.0974
▁फ	-11.0974
▁गरिदिए	-11.0975
१२	-11.0975
▁दाङमा	-11.0975
▁भोली	-11.098
▁नारी	-11.0984
▁कारवाहीको	-11.0988
▁लापरवाही	-11.0988
▁डेभलपमेन्ट	-11.0988
▁सन्तुष्ट	-11.0989
▁चुस्त	-11.0989
▁हाल्ने	-11.0991
▁आईपीएल	-11.0992
▁समयअघि	-11.0996
▁संहिता	-11.0996
र्	-11.0997
▁सक्नुहुन्छ	-11.1005
▁पदयात्रा	-11.1008
▁विज्ञप्तिमार्फत	-11.1008
▁सहारा	-11.1009
▁रोजगारदाता	-11.1011
▁निर्मल	-11.1012
▁हटाएको	-11.1012
▁श्रेष्ठका	-11.1012
▁मन्त्रालयसँग	-11.1017
▁आफुहरु	-11.1018
▁पम्प	-11.1019
▁महशु	-11.102
▁निराशा	-11.102
▁तैपनि	-11.1023
▁पशुपक्षी	-11.1024
▁मुलुकहरु	-11.1026
▁प्रतिस्थापन	-11.1028
▁सतर्क	-11.103
▁प्रदेशबाट	-11.1032
स्वरूप	-11.1034
▁टिका	-11.1035
▁संस्करण	-11.1036
▁अवधिको	-11.1038
▁सक्नुपर्छ	-11.1039
▁बस्तु	-11.1039
▁शङ्कर	-11.1041
▁रि	-11.1049
▁गच्छदार	-11.1051
▁धक्का	-11.1056
▁अलोकतान्त्रिक	-11.1056
▁संवत्	-11.1056
▁पाएनन्	-11.1058
▁२०१२	-11.1062
▁सक्छौं	-11.1063
▁याद	-11.1064
▁विषयगत	-11.1069
▁सिद्धार्थ	-11.107
▁खानु	-11.1071
▁पाँचौँ	-11.1074
▁फुट	-11.1078
▁रिसर्च	-11.1078
▁टे	-11.1082
▁जनवाद	-11.1083
▁शर्त	-11.1083
ीकरण	-11.1083
▁चक्रपथ	-11.1086
▁स्वास्थ	-11.1088
▁शतप्रतिशत	-11.1089
▁तातो	-11.109
▁पसिना	-11.109
▁साइत	-11.1091
▁पालिकामा	-11.1092
▁जोड्दै	-11.1094
▁श	-11.1094
▁बन्नु	-11.1095
▁प्रतीक	-11.11
▁तिहाई	-11.1103
▁नामको	-11.1108
▁दु	-11.111
▁पेसा	-11.111
▁भूगोल	-11.1112
▁ट्यांकर	-11.1113
▁सबल	-11.1114
नू	-11.1121
▁शम्भु	-11.1123
▁पुडासैनी	-11.1123
▁हौसला	-11.1123
▁२०७६७७	-11.1124
▁कार्यवाहक	-11.1127
▁बेचेर	-11.1127
▁फाइजर	-11.1129
▁पुस्तकालय	-11.113
▁गिट्टी	-11.1132
▁बाबा	-11.1133
▁मितिमा	-11.1133
क्रान्त	-11.1134
▁बिहार	-11.1135
▁जुट	-11.1136
▁डाउन	-11.1141
▁सोधेको	-11.1145
▁नोक्सान	-11.1149
▁रातिदेखि	-11.1154
▁संग्रह	-11.1155
▁राजसंस्था	-11.1157
▁सेन्सेटिभ	-11.1157
▁राजवंशी	-11.1157
▁अपुग	-11.1157
▁कष्टकर	-11.1158
▁दृढ	-11.1169
▁अर्कोतर्फ	-11.1171
स्वास्थ्यमन्त्री	-11.1176
▁खेलाडीमा	-11.1177
▁धितो	-11.1179
▁समस्याहरु	-11.1182
▁करोडभन्दा	-11.1182
▁चौतर्फी	-11.1192
▁ल्याइने	-11.1197
▁बनाइ	-11.1199
न्ट	-11.12
▁सहमतिका	-11.1203
▁निगमलाई	-11.1206
▁तीनवटै	-11.1206
२५	-11.1209
▁कोड	-11.1211
▁इन्जिन	-11.1213
▁निर्णयलाई	-11.1214
▁अनुपात	-11.1214
रि	-11.1217
दू	-11.1221
▁हेरचाह	-11.1226
▁गुर्जो	-11.1226
हू	-11.1229
▁सानेपा	-11.1231
नि	-11.1237
▁औषधिको	-11.1239
▁हत्यामा	-11.1242
▁चारै	-11.1246
▁पे	-11.1248
▁बाइक	-11.1255
▁लियो	-11.1259
▁ठकुरी	-11.126
▁उत्तरदायित्व	-11.126
▁हकप्रद	-11.126
▁गोपनीयता	-11.126
▁निन्दा	-11.126
▁खुलासा	-11.1264
▁रेड	-11.1267
▁पुर्याएको	-11.1267
प्र	-11.1268
▁इन्टरनेसनल	-11.1274
▁पाएर	-11.1279
▁डिपिआर	-11.1281
▁टोखा	-11.1283
▁मरेका	-11.1284
▁खुलाउन	-11.1285
▁सधै	-11.1291
▁अनु	-11.1292
▁तिमल्सिना	-11.1295
▁मनोनित	-11.1295
▁भुजेल	-11.1295
▁बुद्धि	-11.1308
▁कान	-11.1312
कोरोना	-11.1318
▁खरिदका	-11.132
▁प्रतिवाद	-11.1324
▁उत्तीर्ण	-11.1329
▁खतरनाक	-11.1329
▁संस्कृत	-11.1329
▁चपेटा	-11.1331
एस	-11.1331
▁सोसल	-11.1332
▁:	-11.1332
▁मिसन	-11.1335
▁सेकेन्ड	-11.1338
एन	-11.1339
ेन्द्र	-11.1341
▁पाईने	-11.1346
▁महीना	-11.1347
▁सौन्दर्य	-11.1348
▁पुरुषमा	-11.1356
▁विकल्पमा	-11.1359
▁दसैँ	-11.1363
▁ब्याट्सम्यान	-11.1364
▁प्रभावशाली	-11.1365
▁तेजबहादुर	-11.1366
▁बग्ने	-11.1367
▁वर्षमान	-11.1369
▁फैलन	-11.1372
▁शास्त्रीय	-11.1373
▁नपा	-11.1373
विरूद्ध	-11.1382
▁दाजुभाई	-11.1383
अन्तर्गतको	-11.1384
▁राष्ट्रसङ्घ	-11.139
▁मध्यरात	-11.1392
▁सार्थक	-11.1397
▁प्रि	-11.1398
▁वृष	-11.1399
▁अञ्चल	-11.1399
▁अनुहारमा	-11.1399
▁परिनेछ	-11.1399
▁गठबन्धनमा	-11.14
▁मेष	-11.14
▁खेतबारी	-11.1402
▁२००७	-11.1403
▁यिनै	-11.1405
भक्त	-11.1406
▁महिलाहरू	-11.1406
▁अल्पमतमा	-11.1407
▁वातावरणमा	-11.1408
▁गर्नुपर्दछ	-11.1413
▁सङ्घीयता	-11.1414
▁सम्पती	-11.1415
▁पक्षबीच	-11.1416
▁फेल	-11.1418
ुअघि	-11.1419
▁पोखरीमा	-11.142
▁निकायबाट	-11.142
त्मक	-11.1421
▁हानी	-11.1424
▁प्रदेशसभाका	-11.1424
▁सरकारविरुद्ध	-11.1425
▁बबई	-11.143
▁ढाका	-11.1432
▁त्रसित	-11.1434
▁उद्दार	-11.1434
▁पोशाक	-11.1434
▁सुझाब	-11.1434
▁भद्रपुर	-11.1434
▁खसी	-11.1435
▁अध्यागमन	-11.1438
▁रामेश्वर	-11.1438
▁तिनका	-11.1443
▁२०६३	-11.1452
▁कोरियाको	-11.1452
▁राखेप	-11.1461
▁समकक्षी	-11.1465
▁स्थापनाका	-11.1467
▁कच्ची	-11.1469
▁चौडाइ	-11.1469
▁सावित	-11.1469
▁बन्धक	-11.1471
▁दुनियाँ	-11.148
▁छुटेका	-11.1489
▁कार्यशैली	-11.1492
▁बोलेको	-11.1494
▁सिके	-11.1494
▁भाग्य	-11.1497
▁सिकार	-11.1499
स्त	-11.1499
▁विषयवस्तु	-11.15
▁सार	-11.1501
▁एनआरएनए	-11.1502
▁आक्रामक	-11.1504
▁गलकोट	-11.1504
▁खगेन्द्र	-11.1504
▁जिसी	-11.1505
▁खेलिरहे	-11.1507
देशीय	-11.1511
▁रामकुमारी	-11.1514
टू	-11.1517
▁पर्सामा	-11.1519
▁भित्रै	-11.152
ताका	-11.1521
▁वार्ड	-11.1522
▁ल्याइएका	-11.1523
▁भारततर्फ	-11.1523
▁उल्लेखित	-11.1525
▁मालिका	-11.1528
▁आशिष	-11.1528
▁खुले	-11.1533
▁फ्लोर	-11.1537
▁नदिई	-11.1537
▁राजभण्डारी	-11.1539
▁उपमहासचिव	-11.1539
▁लाग्थ्यो	-11.1539
▁प्रतिरक्षा	-11.1539
▁एसियन	-11.154
▁अघिल्ला	-11.1541
०००	-11.1543
▁बूढानीलकण्ठ	-11.1545
▁चुनौतीपूर्ण	-11.1547
▁भव्य	-11.1549
▁ब्लक	-11.155
▁फर्काउने	-11.155
▁गंगा	-11.1551
▁पेसी	-11.1552
▁संक्रामक	-11.1554
▁छनोटमा	-11.1555
▁आईसीसी	-11.1561
▁कुर्सी	-11.1567
▁आफूमाथि	-11.1568
▁भवानी	-11.1568
▁हुन्थे	-11.1569
▁कठोर	-11.1569
▁इन्डोनेसिया	-11.1574
▁व्यावहारिक	-11.1575
▁लालबाबु	-11.1575
▁आशावादी	-11.1576
▁विधानमा	-11.1578
▁रुसी	-11.158
▁प्राचीन	-11.1581
▁इन्डिया	-11.1584
▁ओटा	-11.1584
▁कमाण्ड	-11.1585
▁रोकेर	-11.1586
▁इञ्चार्ज	-11.1586
▁साताअघि	-11.1587
▁योजनाका	-11.1588
▁बेस	-11.1591
ञ	-11.1591
▁कमै	-11.1598
▁पन्तको	-11.1601
▁कामी	-11.1608
▁महाराष्ट्र	-11.161
गू	-11.1612
▁याए	-11.1612
▁प्राथमिकताका	-11.1615
▁गर्नेहरुका	-11.1615
▁सहजता	-11.1617
▁छात्रा	-11.1617
▁२०११	-11.162
जति	-11.1621
▁सुनाएको	-11.1623
▁फौज	-11.1624
▁सन	-11.1627
▁क्याप्टेन	-11.1632
▁पाउँछ	-11.1643
▁माझी	-11.1644
▁उपर	-11.1645
▁लिमिटेडको	-11.1646
▁रोक्का	-11.1647
▁सम्मका	-11.1648
▁त्योभन्दा	-11.1652
▁पाइयो	-11.1653
▁युवकको	-11.1658
▁शरणार्थी	-11.1659
▁विकट	-11.1662
▁गर्नुअघि	-11.1663
▁हाल्न	-11.1672
▁डोरमणि	-11.1682
▁आकांक्षी	-11.1686
्ली	-11.1686
▁भात	-11.1686
▁अभियानकर्मी	-11.1687
▁इतर	-11.1692
विरोधी	-11.17
▁अतिथि	-11.1701
▁लोगो	-11.1702
▁युवायुवती	-11.1707
मुनि	-11.1709
▁इमान्दार	-11.171
▁जसो	-11.1713
▁जि	-11.1714
▁छोड्न	-11.1716
▁सिजनको	-11.1717
▁बेग्लै	-11.1718
▁बायर्न	-11.1718
▁इटालियन	-11.1718
▁आइएमई	-11.1718
▁बोका	-11.1727
ेश्वर	-11.1733
▁स्थिती	-11.1735
▁स्तरीय	-11.1738
▁न्यायाधीशहरू	-11.1753
▁झरना	-11.1754
▁हिन्दी	-11.1756
▁श्रीलङ्का	-11.1756
▁मोरङमा	-11.1756
▁बुकिङ	-11.1757
▁विनाश	-11.1758
▁ऐरी	-11.176
जु	-11.176
▁अग्र	-11.1762
▁चौतारी	-11.1764
करण	-11.1764
▁ट्रायल	-11.1767
▁सबैजसो	-11.1767
▁ब्याक	-11.1767
िङ्ग	-11.1767
▁घिसिङ	-11.1768
▁तिब्बत	-11.1768
▁महाशाखाको	-11.1769
▁डेनमार्क	-11.1771
▁शिविरमा	-11.1777
▁कामकाज	-11.1783
▁सुदृढीकरण	-11.1783
▁क्यानडा	-11.1784
टार	-11.1785
▁ज्योतिषी	-11.1788
▁एल	-11.1789
▁भीमदत्त	-11.1789
▁बितिसक्दा	-11.179
चोक	-11.1791
▁रहनुभएका	-11.1791
▁सर्भिस	-11.1791
▁म्यानेजर	-11.1794
▁विष	-11.1795
क्रममा	-11.1796
▁यन्त्र	-11.18
▁विस्तारमा	-11.1801
▁सातौं	-11.1802
▁दोहोर्	-11.1805
▁शासक	-11.1806
▁खेतीमा	-11.1808
▁अफगान	-11.1811
यु	-11.1819
▁घोषणापत्र	-11.1826
▁सूर्यविनायक	-11.1827
▁मध्ययम	-11.1827
▁नेवार	-11.1832
१८	-11.1833
▁बक्स	-11.1835
▁बन्दा	-11.1836
▁मिल्न	-11.1837
▁पालन	-11.1845
▁लगेका	-11.1845
▁प्रान्तमा	-11.1849
न्छ	-11.1849
▁पाँचखाल	-11.185
▁०७७	-11.1853
▁भएँ	-11.1854
▁रुपमै	-11.1858
▁सन्तुलित	-11.1858
▁टाउकोमा	-11.1859
▁अपरिहार्य	-11.186
▁सुने	-11.1862
▁बचाउने	-11.1863
▁चेम्बर	-11.1863
▁संभावना	-11.1863
▁गिरिजाप्रसाद	-11.1864
▁कोराना	-11.1864
▁नदिँदा	-11.1865
▁सीमानाका	-11.1867
▁पीडितको	-11.1869
▁पढेर	-11.1869
▁इन्स्टिच्युट	-11.1869
▁प्राय	-11.187
रहँदा	-11.1871
▁आतंक	-11.1874
▁यहीँ	-11.1875
हाम्रो	-11.1881
स्ट	-11.1885
लू	-11.1887
▁सक्यो	-11.1896
▁कर्मचारीहरू	-11.1896
▁प्रकृया	-11.19
▁लसुन	-11.19
▁पर्वमा	-11.19
▁परामर्शदाता	-11.19
▁बुझेको	-11.1901
▁हर	-11.1902
खा	-11.1903
▁देखेका	-11.1905
▁कुटनीतिक	-11.1906
▁मुलुकी	-11.1907
▁होमस्टे	-11.191
▁धुने	-11.1913
▁उडानमा	-11.1918
▁संसारभर	-11.1923
▁२०१०	-11.1924
▁हजारसम्म	-11.1925
▁कुरो	-11.1925
▁चार्ज	-11.1931
▁स्टेट	-11.1932
▁निरुत्साह	-11.1934
▁एट्लेटिको	-11.1937
▁विमलेन्द्र	-11.1937
▁नयाँदिल्ली	-11.1937
▁डुबेर	-11.1938
▁प्रणालीबाट	-11.1941
शील	-11.1943
तथापि	-11.1945
▁धारण	-11.1949
ँदै	-11.1951
▁मान्य	-11.1952
▁सूचनाका	-11.1971
▁माघमा	-11.1973
▁निर्विरोध	-11.1973
▁बिक्रेता	-11.1973
▁यातना	-11.1973
▁व्यायाम	-11.1973
▁उपल्लो	-11.1973
▁सहचालक	-11.1973
▁हे	-11.1974
▁कैयौं	-11.1974
▁प्युठान	-11.1976
दैव	-11.1976
▁भूमिहीन	-11.1977
▁मानन्धरले	-11.1978
▁ध	-11.1979
तिमध्ये	-11.1982
▁घट्न	-11.199
▁बैठकका	-11.1993
▁भुमिका	-11.1996
▁सङ्ग्रहालय	-11.2006
▁निकालेका	-11.2008
▁प्रभावकारिता	-11.201
▁भण्डारीलाई	-11.2014
▁घरका	-11.2016
▁निकुञ्जमा	-11.2019
▁अवधिभर	-11.2022
▁प्रो	-11.2022
▁एक्स	-11.2029
▁सोधे	-11.2031
▁अपनाउनु	-11.2033
▁नेसनल	-11.2038
▁पोखराको	-11.2039
▁च्याउ	-11.204
▁निकायहरु	-11.204
▁रेस्टुरेन्ट	-11.2041
▁हितका	-11.2048
▁सेल	-11.2048
▁कदर	-11.205
▁२००८	-11.2051
▁स्तम्भ	-11.2052
▁मार्गमा	-11.2054
▁कार्कीको	-11.2055
१३	-11.2057
▁बिजनेस	-11.2058
▁करोडौं	-11.2058
▁मुग्लिन	-11.2058
▁भैरहेको	-11.2059
▁बनिसकेको	-11.2062
१७	-11.2062
हरूसँग	-11.2069
▁सवाल	-11.207
▁दम्पती	-11.2071
▁सक्नेछ	-11.2082
▁ग्यारेन्टी	-11.2085
▁फुकुवा	-11.2085
▁तालाबन्दी	-11.2085
▁आएमा	-11.2085
▁रोगका	-11.2088
▁ध्रुव	-11.2092
▁चक्र	-11.2094
१४	-11.2099
▁मेक्सिको	-11.21
▁हिँडेर	-11.21
दास	-11.2101
▁हेर्नुस्	-11.2107
▁एकसाथ	-11.211
▁कर्णालीका	-11.2112
▁विश्लेषक	-11.2115
▁आचरण	-11.2119
▁देशभित्र	-11.212
▁धुम्बाराही	-11.2122
▁खानपानमा	-11.2123
▁महोत्सवमा	-11.2123
▁कसै	-11.2123
▁मुख्यसचिव	-11.2124
▁नबिल	-11.2124
▁बिहिबार	-11.2124
▁महिलामा	-11.2126
▁तेजाब	-11.2126
▁बिच	-11.2127
▁समर्थनमा	-11.2134
▁सबैतिर	-11.2136
तू	-11.2136
▁मिलाएको	-11.2141
िका	-11.2143
▁नेताबीच	-11.2145
▁केरुङ	-11.2146
▁खर्चमा	-11.2146
घाट	-11.2148
▁नेकपामा	-11.2153
▁श्वास	-11.2154
विक्रम	-11.216
▁पूर्ति	-11.216
▁पौने	-11.216
▁पत्रकारहरु	-11.2161
▁सुनिता	-11.2161
▁होईन	-11.2163
▁भ्रातृ	-11.2166
▁तराईमा	-11.2166
▁माल	-11.2168
▁छैटौं	-11.2168
▁त्यसैको	-11.2169
▁शुन्य	-11.217
▁अनेरास्ववियु	-11.2174
▁ढिलाई	-11.2175
▁देशभरी	-11.2177
▁राजनैतिक	-11.2177
▁उपलब्धता	-11.2178
▁लागिपरेको	-11.2179
▁भएदेखि	-11.2182
▁बु	-11.2185
▁एमालेबाट	-11.2185
▁वालिङ	-11.2187
बजार	-11.2187
वाहक	-11.2193
कोभिड१९	-11.2193
▁जीवनशैली	-11.2196
▁बाँडफाँट	-11.2196
▁कार्यलय	-11.2197
▁लाभान्व	-11.2199
▁जमरा	-11.22
▁खेतीयोग्य	-11.2201
▁लगाउनुपर्ने	-11.2202
▁खसीबोका	-11.2206
▁तोकेर	-11.2207
▁सुन्दरता	-11.2211
▁कलाकारको	-11.2213
ेन	-11.2213
▁पर्नु	-11.2218
▁राष्ट्रपतिबाट	-11.2219
▁गर्व	-11.2221
▁कक्षामा	-11.2225
▁हेर्दै	-11.2229
▁दम	-11.2229
▁भूभागहरु	-11.223
▁लगानीका	-11.2233
िरहँदा	-11.2233
▁अलग्ग	-11.2234
▁सुख्खा	-11.2235
▁जहिले	-11.2236
▁बरिष्ठ	-11.2236
▁खानपान	-11.2236
▁आयकर	-11.2236
▁अलैंची	-11.224
▁फाउण्डेशन	-11.2244
▁सत्तापक्ष	-11.2245
ङ्	-11.2246
▁श्रीराम	-11.2249
▁नाग	-11.225
▁तथ्याङ्कअनुसार	-11.2251
▁यौँ	-11.2252
▁आफन्तसँग	-11.2254
वटा	-11.2254
▁हाम्रै	-11.2257
▁पेरिसडाँडा	-11.2262
तर्फबाट	-11.2264
▁सहयोगले	-11.2264
▁बाग्लुङ	-11.2265
▁राईलाई	-11.2265
▁महामारीमा	-11.2265
▁मसान्तभित्र	-11.2266
▁वक्तव्यमा	-11.2267
▁सक्नु	-11.227
▁अरेबिया	-11.2271
▁नियोग	-11.2272
▁न्यूयोर्क	-11.2274
▁पूजाआजा	-11.2274
▁पाकिस्तानको	-11.2274
▁घाउ	-11.2274
▁सिरिया	-11.2275
▁सच्याउन	-11.2276
▁दोहा	-11.2276
▁वार्ताको	-11.2279
▁दुर्लभ	-11.228
▁बचाउ	-11.228
▁वे	-11.2282
छौं	-11.2283
बाहक	-11.2283
▁मरेको	-11.2283
पश्चात	-11.2284
▁पौडी	-11.2287
▁ब्युरो	-11.229
▁अनन्त	-11.229
▁एकादशी	-11.2292
▁दिइयो	-11.2298
▁२०३०	-11.2298
▁तास	-11.2301
▁यहाँबाट	-11.2304
▁स्वदेशमा	-11.2309
▁मौज्दात	-11.2312
▁वृश्चिक	-11.2312
▁प्रम	-11.2313
▁छापा	-11.2317
▁समाजसेवी	-11.2318
▁उद्यम	-11.2318
▁खेलका	-11.2323
▁पेटमा	-11.2323
▁छुट्याएको	-11.2324
▁स्टोर	-11.2327
▁मर्ने	-11.2328
▁रहनेछन्	-11.2328
▁क्षमतामा	-11.2329
▁ग्राहकको	-11.233
▁पल	-11.2332
▁भत्किएको	-11.2333
▁गरिएकामा	-11.2335
▁सक्छौँ	-11.2335
▁दिनभित्रै	-11.2339
▁खुलेका	-11.2341
▁वार्ताका	-11.2347
▁खाका	-11.2348
▁लघु	-11.235
▁उपदफा	-11.235
▁हत्यारा	-11.235
▁भिडन्त	-11.235
▁सुरुङमार्ग	-11.2351
▁२२०	-11.2351
▁नमान्ने	-11.2351
▁रिहाइ	-11.2351
पहिलो	-11.2353
हरुबाट	-11.2353
▁दाउ	-11.2355
▁उभिएर	-11.2355
▁मेनपावर	-11.2362
▁देशहरुमा	-11.2368
▁नेताहरूलाई	-11.237
▁जोखिमपूर्ण	-11.2371
▁फलदाय	-11.2384
▁अर्काको	-11.2385
▁अवश्य	-11.2386
▁आगजनी	-11.2389
▁हुस्सु	-11.2389
▁अन्सारी	-11.2389
▁मार्फत्	-11.239
▁विषयक	-11.2391
▁सोमबारदेखि	-11.2392
▁गतवर्ष	-11.2392
▁दही	-11.2393
▁स्पेनि	-11.2394
▁पाँचवटा	-11.2395
▁इन्टर	-11.2397
▁खोलेको	-11.2397
▁सुनेर	-11.241
▁तिथि	-11.2412
▁न्यू	-11.2413
▁कोदो	-11.2413
▁तिहारमा	-11.2415
▁सरेको	-11.2415
▁भूमिमा	-11.2419
▁गतेभित्र	-11.2422
▁नेताहरुसँग	-11.2424
▁लगे	-11.2426
▁दिक्तेल	-11.2427
▁शुक्लाफाँटा	-11.2427
▁जनसम्पर्क	-11.2427
▁पकेट	-11.2427
▁नपाउँदै	-11.2428
▁खुद्रा	-11.2428
▁संसारमा	-11.243
▁अप	-11.2435
▁दिल	-11.2436
▁पेन्सन	-11.2438
▁सरह	-11.2438
▁अन्योलमा	-11.2441
▁रिपोर्टमा	-11.2444
▁योसहित	-11.2445
▁हुलाक	-11.2452
▁ढंगबाट	-11.2455
▁कारबाहीमा	-11.246
▁लक्ष्यका	-11.2462
▁विषयको	-11.2463
▁उल्लङ्घन	-11.2465
▁पाकिस्तानमा	-11.2465
▁मन्तव्य	-11.2466
▁औँल्याए	-11.2466
▁दर्जनौं	-11.2471
▁छाना	-11.2473
▁भएयता	-11.2481
▁सुन्दरीजल	-11.2484
▁नियन्त्रक	-11.2484
▁जोडिने	-11.2484
▁पढाउन	-11.2489
▁किरा	-11.2494
▁देशभरि	-11.2498
▁बसमा	-11.2498
▁आँधी	-11.2504
▁प्रियंका	-11.2505
▁ट्रेलर	-11.2507
▁अनौठो	-11.251
▁लोकप्रियता	-11.2512
▁धनबहादुर	-11.2518
▁सघाउने	-11.2523
▁पुग्नु	-11.2524
▁स्वयंसेवक	-11.2525
▁वरियता	-11.2536
▁बेल	-11.2537
▁प्रिय	-11.2542
▁शत्रु	-11.2543
▁कृत्रिम	-11.2544
▁रचनात्मक	-11.2544
▁वर्गीकरण	-11.2545
▁कर्मचारीमा	-11.2546
▁पहुँचमा	-11.2547
▁डेरी	-11.2548
▁जान्छन्	-11.2551
▁भण्डार	-11.2557
ज्यू	-11.2557
▁योजनाहरु	-11.2559
▁हटेको	-11.2561
वू	-11.2563
पार्टी	-11.2568
▁सा	-11.2571
▁हेर	-11.2578
▁थाइल्याण्ड	-11.2579
▁बच्चाको	-11.258
▁मन्त्र	-11.2581
▁सिग्देल	-11.2583
▁आश्विन	-11.2583
▁इंग्लिस	-11.2583
▁पुरुषोत्तम	-11.2583
▁स्वास्थ्यचौकी	-11.2584
▁महाधिवेशनका	-11.2588
▁मानबहादुर	-11.2589
▁ट्राभल	-11.2596
▁शुद्ध	-11.2605
▁सम्झौताअनुसार	-11.2607
▁हटाइएको	-11.2612
▁उपविजेता	-11.2612
▁बैंकहरू	-11.2612
▁शीतल	-11.2617
▁विपद	-11.262
▁सर्किट	-11.2622
▁आशङ्का	-11.2623
▁आँगन	-11.2623
▁चेपाङ	-11.2624
▁जोन्सन	-11.2624
▁यात्रुले	-11.2625
▁स्वाभिमान	-11.2626
▁अगावै	-11.263
▁थप्न	-11.2631
▁दिन्छु	-11.2631
▁पुरी	-11.2631
▁सहमती	-11.2634
▁यिन	-11.2635
▁लीला	-11.2635
▁बाजा	-11.2637
र्न	-11.2637
िनी	-11.2639
▁कोभिसिल्ड	-11.2639
▁त्यसबाहेक	-11.2644
▁कानुनको	-11.2648
▁बिहानसम्म	-11.265
▁शर्माको	-11.2651
▁रामशरण	-11.2653
▁जोर	-11.2657
▁तेश्रो	-11.2662
▁युनिभर्सिटी	-11.2662
▁अनुचित	-11.2662
▁रोचक	-11.2662
▁अराजकता	-11.2663
▁दौरान	-11.2663
▁पुरै	-11.2664
▁स्वदेशमै	-11.2664
▁साबिक	-11.2664
▁बेरोजगारी	-11.2665
▁छैटौँ	-11.2667
खाले	-11.2667
▁रामकुमार	-11.2669
▁पाइला	-11.2672
▁महेश्वर	-11.2673
▁महत्त्व	-11.2677
▁यसकारण	-11.2677
▁पि	-11.2678
▁आत्मविश्वास	-11.2682
िलो	-11.2682
▁राख्नुपर्छ	-11.2687
▁घिसिङले	-11.2687
▁समीकरण	-11.2688
▁पीडितले	-11.2688
▁पाउँदैन	-11.2688
▁आएन	-11.2689
▁क्षमताका	-11.269
▁बागलुङमा	-11.269
▁आश्चर्य	-11.2701
▁आणविक	-11.2702
▁आकलन	-11.2702
▁सिधा	-11.2702
▁सन्तोषजनक	-11.2703
हरूका	-11.2703
▁जमघट	-11.2706
▁खुकुरी	-11.2707
▁मध्यावधि	-11.2707
▁जितमा	-11.2707
▁साँझसम्म	-11.271
▁अर्कातिर	-11.2715
▁कमि	-11.2716
▁शाहीलाई	-11.2716
▁लगत	-11.2721
▁बन्नेछ	-11.2724
▁गान्धी	-11.2733
▁भुक्तान	-11.2733
▁पुष्पलाल	-11.2734
▁मेचीनगर	-11.2735
▁नपरेको	-11.2735
दार	-11.274
ाउन	-11.274
▁एक्सन	-11.274
▁कम्प्लेक्स	-11.2742
▁मर्यादित	-11.2742
▁राउण्ड	-11.2742
▁पलायन	-11.2742
▁टोपबहादुर	-11.2742
▁बिष्ट	-11.2742
▁पूर्वपश्चिम	-11.2743
▁टाइम्स	-11.2744
▁अंकमा	-11.2746
▁छोड्ने	-11.2757
▁चाहेका	-11.2761
▁शीघ्र	-11.2762
▁नाराका	-11.2765
▁चलिरहेका	-11.2777
▁म्यान्चेस्टर	-11.2782
▁ईलाका	-11.2782
▁पृथ्वीसुब्बा	-11.2782
▁राजदूतावास	-11.2785
▁परिपत्र	-11.2786
▁ललित	-11.2787
▁मुद्धा	-11.2795
▁पूर्वमाओवादी	-11.2795
▁अध्यक्षबीच	-11.2797
▁लक	-11.2803
▁पुग्दैन	-11.2804
कन	-11.2806
▁अध्यक्षता	-11.2811
▁प्रर्दशन	-11.2813
▁हावाहुरी	-11.2814
▁आईतवार	-11.2816
▁गर्नुहोला	-11.2818
▁कन्स्ट्रक्सन	-11.2822
▁पटेल	-11.2822
▁बैतडीका	-11.2824
▁आरोपी	-11.2825
▁व्यवसायीहरू	-11.2826
▁सातासम्म	-11.2833
▁बिस्तार	-11.2841
▁एकदुई	-11.2855
▁सर्भे	-11.2856
▁उसै	-11.2858
▁क्लबमा	-11.286
▁ब्यानर	-11.2862
▁प्रसङ्ग	-11.2862
▁दमकल	-11.2862
▁मेगा	-11.2863
▁विन्दुमा	-11.2865
▁मंगल	-11.2869
▁भएकाहरुको	-11.2872
▁सार्की	-11.2875
▁इन्डियन	-11.2875
▁भा	-11.2876
▁चिकित्सकहरु	-11.2879
▁हिरो	-11.2883
▁दाता	-11.2886
▁हप्ताको	-11.2891
▁उत्थान	-11.2892
▁प्रतिबन्धित	-11.2892
▁लेक	-11.2894
▁बुधबारदेखि	-11.2894
▁रानीपोखरी	-11.2898
अगाडि	-11.2898
बार	-11.2898
पक्षीय	-11.2899
बासी	-11.2902
▁कैयौँ	-11.2903
▁पूर्वतयारी	-11.2903
▁अवैधानिक	-11.2903
▁भाडादर	-11.2904
बल	-11.2907
२३	-11.2907
▁उम्मेद्वार	-11.2907
▁विनिमय	-11.2909
बर	-11.2909
▁साउथ	-11.2914
▁सोलार	-11.2914
▁हिउँदमा	-11.2915
▁आखिर	-11.2917
▁२०६९	-11.2919
▁०७४	-11.2923
ेसन	-11.2926
▁भन	-11.2927
▁संसदबाट	-11.2932
▁बच्ने	-11.2937
▁टेष्ट	-11.2943
▁शानदार	-11.2943
▁विनियोजित	-11.2943
▁कालोसूची	-11.2943
▁वार्षिकोत्सव	-11.2943
▁पुर्पक्ष	-11.2944
ेल	-11.2946
▁थाल्छ	-11.2947
▁नियुक्तिका	-11.2949
▁अग्रज	-11.2949
▁धुन	-11.295
▁घ	-11.2951
▁रू	-11.2951
▁प्रस्तावमाथि	-11.2952
▁राजीव	-11.2954
▁शेयरधनी	-11.296
▁थर	-11.2961
▁संसारका	-11.2963
वर	-11.2965
▁धरौटीमा	-11.2969
▁किमि	-11.2972
▁तिलक	-11.298
▁बढ	-11.298
▁मापदण्डअनुसार	-11.298
▁बस्तीका	-11.2981
▁फिदिम	-11.2984
▁आयआर्जन	-11.2984
▁पम्फा	-11.2984
▁साइबर	-11.2984
▁उत्पादकत्व	-11.2985
▁निस्किए	-11.2985
▁भाँडा	-11.2985
▁भित्रिएका	-11.2985
▁राहुल	-11.2994
▁हारेर	-11.2996
▁गहना	-11.2996
▁गर्छौ	-11.2997
▁सुनाउँदै	-11.2999
▁शुरुवाती	-11.2999
▁बुझाए	-11.3
ण्ड	-11.3
▁परेन	-11.3012
▁नाइट	-11.3019
▁पेस्तोल	-11.3019
▁लाने	-11.3022
▁कपिल	-11.3023
▁वैदिक	-11.3023
▁अनुप	-11.3024
▁दिलीप	-11.3024
▁उपनेता	-11.3025
▁कलाकारले	-11.3025
▁अडियो	-11.3025
▁स्वास्थ्योपचार	-11.3026
▁भेडा	-11.3026
▁सम्भवतः	-11.3028
▁घटस्थापना	-11.303
▁बजेबाट	-11.303
स्तरमा	-11.3036
▁हुँदैनन्	-11.304
झैँ	-11.3041
▁जनमोर्चाका	-11.3042
चू	-11.3049
▁पुष्पा	-11.3053
▁उहाँहरुको	-11.3055
आर	-11.3056
▁थापाका	-11.3056
▁कलम	-11.3057
▁कोमल	-11.3061
▁तोक्न	-11.3063
▁जोडे	-11.3064
५०	-11.3065
▁प्लाज्मा	-11.3066
▁ढिलासुस्ती	-11.3066
▁सङ्केत	-11.3066
▁क्वाटरफाइनल	-11.3066
▁गोकर्णेश्वर	-11.3066
▁नपुग्ने	-11.3067
▁धमला	-11.3067
▁कन्ट्रोल	-11.3069
२९	-11.307
▁सुस्ता	-11.307
▁हलेसी	-11.3074
▁खुलाउने	-11.3079
▁अशक्त	-11.308
▁भेरोसेल	-11.3081
बेला	-11.3081
▁साइड	-11.3082
▁डिपो	-11.3085
▁अड्डा	-11.3089
▁पुटिन	-11.3095
पल्ट	-11.3096
▁सम्वन्ध	-11.3096
▁वेद	-11.3097
▁छाता	-11.3098
▁गिरफ्तार	-11.3099
▁१०८	-11.31
▁टुक्रा	-11.3102
▁गरिएपछि	-11.3102
▁नक्षत्र	-11.3107
▁कार्गो	-11.3108
▁प्रालिका	-11.3108
▁भइरहँदा	-11.3108
▁य	-11.3109
▁मापक	-11.311
▁स्ट्राइकर	-11.3112
▁पदाधिकारीहरु	-11.3118
▁भर्खर	-11.3119
▁ट्रेसिङ	-11.3121
▁बालकको	-11.3123
▁चलाइएको	-11.3125
▁प्रशान्त	-11.3127
▁ल्याएपछि	-11.3132
▁हृदय	-11.3132
▁चाल	-11.3134
▁ड	-11.3139
▁रिटमाथि	-11.3145
२१	-11.3148
▁निर्जीवन	-11.3149
▁२०४६	-11.3152
िंग	-11.3154
▁मार्केट	-11.3154
▁वास्तविकता	-11.3155
▁उल्टो	-11.3156
▁सङ्क्रमणमुक्त	-11.3158
▁दुलाल	-11.3158
▁विजेताले	-11.3162
▁व्यवस्थापिका	-11.3164
▁बेलाबेलामा	-11.3164
▁काँग्रेसको	-11.3165
▁रङ्ग	-11.3165
कर्मी	-11.3166
▁निद्रा	-11.317
▁वृद्धा	-11.3174
▁१४औं	-11.3174
▁दुईपटक	-11.3175
▁भैरव	-11.3177
▁परेकाले	-11.3179
▁बंगाल	-11.3182
▁पूर्णबहादुर	-11.3187
▁प्रजनन	-11.3187
▁खस्द	-11.3189
▁अभिषेक	-11.3191
▁नर्भिक	-11.3191
▁समर्पित	-11.3191
▁मुकेश	-11.3192
▁श्रीकृष्ण	-11.3192
▁निमन्त्रणा	-11.3192
▁१६५	-11.3193
▁भय	-11.3193
▁मामिलामा	-11.3194
▁उद्धारका	-11.3199
▁गस्ती	-11.3202
▁जिम्मेवारीमा	-11.3203
▁देवघाट	-11.3206
▁आश	-11.3206
▁न्यायाधीशहरु	-11.3208
▁बर्षको	-11.3209
टोल	-11.3213
साग	-11.3215
▁चल्छ	-11.3223
▁मापदण्डको	-11.3223
जना	-11.3223
▁१२५	-11.3226
▁झुट	-11.323
▁पला	-11.3232
▁खोजतलास	-11.3232
▁जताततै	-11.3232
▁इमिरेट्स	-11.3233
▁उजागर	-11.3233
▁दरका	-11.3235
▁प्रचण्डबीच	-11.3236
▁दबाबमा	-11.3243
पुर्ण	-11.3245
▁बिक	-11.3248
गर	-11.325
▁एकमात्र	-11.3253
▁सरकारबीच	-11.3257
▁खण्डन	-11.3257
▁निषेधाज्ञाका	-11.3259
▁सिनेट	-11.3259
▁रविन्द्र	-11.3261
▁दशकमा	-11.3262
▁खुवाउन	-11.3263
्त	-11.3264
▁बसन्त	-11.3267
▁रातभर	-11.3267
▁कडाइका	-11.3269
▁गरिन	-11.327
३३	-11.3271
▁बक्सिङ	-11.3271
▁हिँडडुल	-11.3274
▁चाहियो	-11.3275
▁गरिरहँदा	-11.3276
▁वर्षौंदेखि	-11.3278
▁बारीमा	-11.3278
▁युवतीको	-11.3278
राष्ट्रिय	-11.328
▁विवादको	-11.3281
▁पनौती	-11.3284
▁काउन्टर	-11.3286
▁छली	-11.3286
▁सकस	-11.329
▁क्लिक	-11.329
▁नगरका	-11.3293
▁अर्डर	-11.3294
▁बसी	-11.3294
▁हुनुभएको	-11.3297
क्स	-11.3297
▁विषयहरु	-11.33
िज	-11.3301
▁विश्वभरका	-11.3305
शीघ्र	-11.3307
▁सनातन	-11.3309
दान	-11.331
एल	-11.3312
▁मुनाफा	-11.3312
▁आवश्यकताअनुसार	-11.3312
िसकेको	-11.3312
▁गाउँगाउँमा	-11.3312
▁दुव्र्यवहार	-11.3317
▁बोगटी	-11.3317
▁रक्तदान	-11.3317
▁पुरिए	-11.332
▁सेन	-11.332
▁डाँडा	-11.332
▁स्थानिय	-11.3322
▁गर्दैनन्	-11.3322
▁साबित	-11.3323
▁सोध्ने	-11.3323
▁चलेका	-11.3326
▁सम्हालेका	-11.3326
▁केटी	-11.3327
▁वितरणमा	-11.3329
▁साउनदेखि	-11.3331
▁तोकेका	-11.3339
▁महिलासहित	-11.3342
▁काँधमा	-11.3345
▁चलाएका	-11.3348
▁सान	-11.335
▁बोक्न	-11.3351
▁मुकुन्द	-11.3353
▁फड्को	-11.3359
▁युरिया	-11.3359
▁गिरोह	-11.336
▁परेमा	-11.336
टीय	-11.3361
▁यात्रुहरु	-11.3362
▁केन्द्रलाई	-11.3364
▁महासेठ	-11.3366
▁शिवराज	-11.3368
▁कमिटि	-11.3371
▁गफ	-11.3376
▁तला	-11.3376
▁भैँसी	-11.3376
▁इजरायली	-11.3377
▁स्वामित्वमा	-11.3378
▁बनाएपछि	-11.3382
▁चलान	-11.3384
▁हुदै	-11.3384
▁उत्पादनका	-11.3384
वन	-11.3386
▁सफलताको	-11.3387
▁नरहेका	-11.3388
▁आड	-11.339
▁क्षयरोग	-11.3393
▁देख्ने	-11.3394
▁बेहोस	-11.3398
▁रोयल	-11.34
▁स्नातकोत्तर	-11.3402
▁कल्याणकारी	-11.3402
▁महिलामाथि	-11.3406
▁उत्कर्ष	-11.3407
▁लो	-11.3415
▁दलमा	-11.3416
मेन्ट	-11.3417
था	-11.3419
▁१६०	-11.3425
▁पुस्तकमा	-11.3437
▁आभार	-11.3437
▁व्यवस्थाअनुसार	-11.3437
▁खै	-11.3441
▁नपुग्दै	-11.3444
▁चामे	-11.3446
▁स्वयम्	-11.3446
▁साल्ट	-11.3447
▁बगैँचा	-11.3454
▁गुप्तचर	-11.3458
▁प्रतिमा	-11.3458
पि	-11.346
▁तुलनात्मक	-11.3464
▁बलि	-11.3464
▁बिहानदेखि	-11.3468
▁सागमा	-11.347
▁तोला	-11.3473
▁पौड्याल	-11.3474
कान्त	-11.3475
▁रुपियाँ	-11.3479
▁द्रुत	-11.3486
▁अफ्रिकी	-11.3487
▁समवेदना	-11.3487
▁लुटपाट	-11.3487
▁प्रवृति	-11.3487
▁तामाकोशी	-11.3487
▁औजार	-11.3487
▁सेनिटाइजर	-11.3488
▁पुजारी	-11.3488
▁टेकेर	-11.3491
खू	-11.3495
▁जुवा	-11.3502
▁लागेन	-11.3507
▁आर्ट	-11.3512
▁एफ	-11.3513
▁स्टाफ	-11.3514
▁सफ्टवेयर	-11.3518
▁गर्नुभन्दा	-11.352
▁बदनाम	-11.3522
▁डिफेन्डर	-11.3526
▁नामबाट	-11.3527
▁प्लस	-11.3529
▁सम्प्रेषण	-11.353
▁मुद्दाका	-11.3534
▁विश्वसनीय	-11.3535
▁सुत्न	-11.3536
▁गाउँबाट	-11.3538
▁साथीको	-11.3544
सबै	-11.3544
▁बताउनु	-11.3544
▁जुध्न	-11.3547
▁विज्ञहरुले	-11.355
▁बुलेट	-11.3552
▁फ्रान्समा	-11.3553
▁राजपत्रमा	-11.3559
▁राजनीतिज्ञ	-11.3559
▁झ	-11.3559
जित	-11.3562
▁बलिदान	-11.3566
▁सङ्गीत	-11.3567
▁आउजाउ	-11.3574
▁बिर्तामोड	-11.3574
▁वासिङ्टन	-11.3574
▁वनस्पति	-11.3574
▁टहरा	-11.3574
▁निम्तो	-11.3574
▁मुक्तिनाथ	-11.3575
▁उखुको	-11.3576
▁ज्वाला	-11.3576
▁बिषयमा	-11.3576
▁रूख	-11.3578
▁अपनाउने	-11.3582
▁दिइनेछ	-11.3582
▁बहाना	-11.3585
▁भीमबहादुर	-11.3586
▁मिडफिल्डर	-11.3586
▁लोभ	-11.3587
▁बसाइ	-11.3587
▁देखाइएको	-11.3589
▁भ्याट	-11.3592
▁आसन्	-11.3593
▁पुरुषलाई	-11.3599
थान	-11.36
▁पिङ	-11.3607
▁मेरी	-11.3611
एर	-11.3612
▁फुड	-11.3615
▁युनाईटेड	-11.3617
▁छिटै	-11.3617
▁झोलुङ्गे	-11.3617
▁जनधन	-11.3617
▁अमेरिकन	-11.3618
▁शिक्षालय	-11.3618
▁रेमिटेन्स	-11.3619
▁बैङ्क	-11.362
सरकारले	-11.3624
ुहोला	-11.3625
▁छोरालाई	-11.3626
▁मनसाय	-11.3631
▁देउवासँग	-11.3631
▁साहित्यिक	-11.3636
▁दशकदेखि	-11.3637
▁तीर्थ	-11.3638
▁मेल	-11.3642
▁देखिनु	-11.3644
▁छानो	-11.3652
२६	-11.3657
▁श्रद्धाञ्जली	-11.366
▁सुखद	-11.3661
▁प्रोत्साहित	-11.3661
▁आन्दोलित	-11.3661
▁कालीकोट	-11.3663
▁परिवेश	-11.3664
▁एक्सचेन्ज	-11.3666
▁आजभोलि	-11.3666
▁सोच्न	-11.3666
▁जुम्लाका	-11.3668
▁गर्दछौं	-11.3669
▁योगी	-11.367
▁समुदायस्तर	-11.367
▁पाकिस्तानका	-11.3675
▁पटकसम्म	-11.3676
▁बोले	-11.3677
▁प्रेमबहादुर	-11.3681
सरह	-11.3682
▁सोम	-11.3683
▁लाइनको	-11.3684
▁०६	-11.3693
▁सुनेको	-11.3697
▁मेघ	-11.3697
▁कारबाहीका	-11.3698
▁सक्छु	-11.3699
▁प्याराग्लाइडिङ	-11.37
▁निरंकुश	-11.3702
▁कुलमान	-11.3702
▁आउनुपर्ने	-11.3703
▁गौरवका	-11.3703
▁लिम्बु	-11.3704
▁दातृ	-11.3705
▁साक्षात्कार	-11.3705
▁नीजि	-11.3705
▁कष्ट	-11.3705
▁उत्तरदायी	-11.3705
▁१०१	-11.3708
▁खन्ने	-11.371
▁हजुर	-11.371
▁धावनमार्ग	-11.3721
▁सोधिएको	-11.3723
▁रेष्टुरेन्ट	-11.373
▁स्टेशन	-11.373
▁दृष्टि	-11.3736
▁सम्झनामा	-11.3744
▁जायज	-11.3748
▁बास्कोटा	-11.3749
▁गैरकानूनी	-11.3749
▁पुरातात्विक	-11.3749
▁एयरपोर्ट	-11.3749
▁आत्मघाती	-11.3749
▁फैलिने	-11.3753
▁फुर्सद	-11.3755
▁अखण्डता	-11.3755
▁बर्षीय	-11.3757
▁११८	-11.3758
▁ज्याद	-11.376
मु	-11.376
▁माननीय	-11.3762
न्स	-11.3766
▁हाई	-11.3777
▁पर्साका	-11.378
▁बापत	-11.3787
▁तिमिल्सिना	-11.3791
▁सेकेण्ड	-11.3793
▁बाबजुद	-11.3793
▁निजगढ	-11.3793
▁फ्रेन्च	-11.3793
▁विपिन	-11.3794
▁जयनगर	-11.3794
▁नराख्ने	-11.3798
▁देखी	-11.3802
▁चलाएर	-11.3802
▁हुनबाट	-11.3803
▁देवीको	-11.3804
▁बिचौलिया	-11.381
▁राष्ट्रवादी	-11.3811
▁चालकको	-11.3814
वीर	-11.3814
▁विवरणमा	-11.3815
▁पृष्ठभूमि	-11.3815
▁मधेशी	-11.3815
▁गठनको	-11.3818
▁बजारीकरण	-11.3818
▁आकाशमा	-11.3819
▁बे	-11.3823
एन्फा	-11.3824
▁बोर्डर	-11.3826
▁बजेपछि	-11.3826
बीचमा	-11.383
▁जवाफदेही	-11.3835
▁किनेको	-11.3836
▁आयु	-11.3836
▁सुन्दा	-11.3837
▁खप्तड	-11.3837
▁परिक्रमा	-11.3837
▁धराप	-11.3837
▁हरियाली	-11.3837
▁गुटबन्दी	-11.3838
▁बाधक	-11.3838
▁हेड	-11.3838
▁चुके	-11.3838
त्व	-11.384
▁ठेगाना	-11.384
▁इंग्ल्यान्ड	-11.3841
▁अनिश्चित	-11.3842
▁झर्ने	-11.3843
टि	-11.3846
▁सञ्जीव	-11.3847
▁बोलेका	-11.3848
▁सङ्क्रमितमध्ये	-11.3849
▁गार्ड	-11.385
▁खर	-11.3852
▁विप्रेषण	-11.3854
▁पाल्न	-11.3856
▁पब्लिक	-11.386
▁शुक्रबारदेखि	-11.3863
▁विहार	-11.3865
▁घले	-11.3867
▁मोह	-11.3867
▁गाडीको	-11.3869
▁खाले	-11.387
▁गहन	-11.3871
ोन्मुख	-11.3872
▁रघु	-11.3872
▁तस्कर	-11.3873
▁सुटिङ	-11.3875
▁माछापुच्छ्रे	-11.3882
▁मनपरी	-11.3882
▁आरक्षण	-11.3882
▁जग्गाधनी	-11.3883
▁रत्ननगर	-11.3883
▁सुलभ	-11.3883
▁बाँधेर	-11.3886
▁हुनुभन्दा	-11.3888
▁उनीसँगै	-11.3889
ेश	-11.3891
▁दोस्रोपटक	-11.3891
ार्थ	-11.3891
▁असहाय	-11.3892
गु	-11.3896
▁नजर	-11.39
▁शास्त्र	-11.3902
▁भ्यान	-11.3903
▁फरवार्ड	-11.3905
▁यसबारेमा	-11.3905
▁पार्वत	-11.3906
▁पूर्वाग्रह	-11.3907
▁खोर	-11.3909
▁आङ	-11.3912
▁महिनाका	-11.3918
िल	-11.3918
सक्दो	-11.3918
▁भियतनाम	-11.3918
▁घरबास	-11.3919
▁कास्कीका	-11.3919
लले	-11.392
▁लकडाउनमा	-11.3921
▁अर्थमा	-11.3926
▁ओझेल	-11.3927
▁महाभियोग	-11.3927
▁कार्बन	-11.3927
▁माइनस	-11.3927
▁गुजारा	-11.3927
▁पासवान	-11.3928
▁०१	-11.3928
▁गरोस्	-11.3928
▁नहुँदै	-11.3928
▁मर्जर	-11.3933
▁काली	-11.3936
▁साँचो	-11.3937
▁चीनबीच	-11.3943
▁ट्वीटर	-11.395
हाल	-11.3952
▁समितिबाट	-11.3955
▁पाप	-11.3956
▁प्रतिष्पर्धा	-11.3957
▁आयाम	-11.3962
▁हिट	-11.3963
▁सार्वभौम	-11.3965
▁कटुवाल	-11.3967
▁गाउँघरमा	-11.3969
▁ग्रह	-11.397
▁प्ले	-11.397
▁होल्डिङ	-11.3971
▁स्टेसन	-11.3971
▁मस्जिद	-11.3972
▁फर्निचर	-11.3972
▁लन्डन	-11.3972
▁साँच्चै	-11.3972
▁तेजाव	-11.3972
▁साक्षी	-11.3972
▁घोर	-11.3973
▁थपेको	-11.3976
विलम्ब	-11.3976
▁लिइसके	-11.3977
▁घण्टासम्म	-11.3977
▁सबैजना	-11.3984
▁श्राद्ध	-11.3986
▁एएफसी	-11.3989
▁बोलाए	-11.3991
▁झरे	-11.3993
▁बन्धन	-11.3995
▁०५	-11.401
▁न्यु	-11.4011
▁मेशिन	-11.4016
▁आइडल	-11.4017
▁सानै	-11.4018
▁रामकृष्ण	-11.4019
▁जोखिमका	-11.4021
▁पौडेलका	-11.4021
▁स्थानीयबासी	-11.4022
▁बोध	-11.4022
▁चल्ला	-11.4023
▁जोड्दा	-11.4024
▁डाइभर्सन	-11.4025
▁भेट्ने	-11.4026
▁उठे	-11.4027
▁नदीले	-11.403
▁सुवाल	-11.4031
▁सुरुआत	-11.4031
▁जुटाउने	-11.4039
▁धरानमा	-11.4039
▁वीपी	-11.404
▁समयसीमा	-11.4045
▁झ्याल	-11.4047
▁पाएँ	-11.4048
▁पत्रकारलाई	-11.4049
▁हटे	-11.4049
▁साताभित्र	-11.4058
▁भाद्र	-11.406
▁कोषबाट	-11.4062
▁फेरबदल	-11.4063
▁ट्रफी	-11.4063
▁डोरी	-11.4067
▁फुटाउन	-11.4067
▁बाह्रखरीसँग	-11.4067
▁हुम्लाको	-11.4068
▁निगरानीमा	-11.4072
▁मास	-11.4073
▁सामु	-11.4073
▁पिउन	-11.4073
▁कारवाहीका	-11.4075
▁विनय	-11.4076
▁तामाङको	-11.4077
देखी	-11.4078
▁देखे	-11.4081
▁ट्वीटरमा	-11.4088
▁यात्री	-11.4096
▁युवाहरू	-11.4098
▁नआउँदा	-11.4101
▁वर्षिय	-11.4103
▁धौलागिरि	-11.4107
▁ट्रपिकल	-11.4108
▁षडयन्त्र	-11.4108
▁संक्षिप्त	-11.4108
▁ट्र्याक्टर	-11.4108
▁०२	-11.4108
▁मतभेद	-11.4109
▁प्रत्याभूति	-11.4109
▁वास्ता	-11.4111
▁भोगे	-11.4117
▁पढाउने	-11.412
▁यसमध्ये	-11.4128
▁अर्बौं	-11.4131
▁रोका	-11.4132
▁छोरो	-11.4132
▁लय	-11.4133
▁अन्त्यसम्म	-11.4136
▁थोक	-11.4136
▁खेलहरु	-11.4138
बो	-11.414
टर	-11.4141
▁घटनापछि	-11.4141
▁तामाङलाई	-11.4141
▁गौरी	-11.4143
▁मर्न	-11.4151
▁ओलीविरुद्ध	-11.4151
▁काग	-11.4152
▁उभिएका	-11.4152
▁जनमानस	-11.4154
▁प्रदिप	-11.4154
▁बेवारिसे	-11.4155
▁दृष्टिगत	-11.4155
▁मृत्युदण्ड	-11.4155
▁सातवटा	-11.4158
▁गर्छिन्	-11.416
२२	-11.416
▁नपरोस्	-11.4162
▁बताउँछ	-11.4163
▁सिक्न	-11.4167
▁कन्ट्याक्ट	-11.4169
▁कोभ्याक्स	-11.4173
▁बिहीबारदेखि	-11.4174
▁१३२	-11.4176
▁११४	-11.4177
ाय	-11.418
▁समस्याबाट	-11.4182
▁स्वतन्त्रताको	-11.4182
▁आँखामा	-11.4183
▁कार्यकक्ष	-11.4183
▁चुप	-11.4185
▁प्रेमी	-11.4189
▁मजदुरी	-11.419
▁जनप्रतिनिधिको	-11.4191
▁वैठक	-11.4194
्क	-11.42
▁अब्बल	-11.42
▁अस्मिता	-11.42
▁उत्सर्जन	-11.42
▁कर्पोरेशन	-11.42
▁हस्तकला	-11.42
▁शुद्धीकरण	-11.42
▁ताकेता	-11.4201
▁प्राण	-11.4201
▁नाइजेरिया	-11.4202
▁कसरत	-11.4202
▁ठाडो	-11.4203
▁प्रचण्डसँग	-11.4205
जि	-11.4207
▁कुना	-11.4208
वासी	-11.421
▁चाल्न	-11.4211
▁विद्यार्थीहरू	-11.4215
▁अंकका	-11.4216
▁लेखे	-11.422
▁छेउ	-11.4225
▁निमार्ण	-11.4232
शी	-11.4234
▁तटस्थ	-11.4243
▁वाचन	-11.4245
▁पठाइने	-11.4245
▁मौखिक	-11.4247
▁जफत	-11.4247
▁हेमन्त	-11.4247
भीषण	-11.4247
▁सकिरहेको	-11.4247
▁डरलाग्दो	-11.4247
▁मियाँ	-11.4248
▁कमाए	-11.4249
४२	-11.425
▁ठाउँठाउँमा	-11.4251
▁लालबहादुर	-11.4252
▁छाती	-11.4252
▁च्यालेन्ज	-11.4252
▁फैलाउने	-11.4253
▁आरटी	-11.4253
भि	-11.4255
▁कोरियाका	-11.4256
▁ग्रेड	-11.4259
▁परिवारसँग	-11.4265
▁फोर्स	-11.4274
▁पासपोर्ट	-11.4275
▁चले	-11.428
▁मण्डला	-11.4285
▁अमित	-11.4288
▁विजयकुमार	-11.4289
▁निर्माणस्थल	-11.4292
▁आईसीयू	-11.4293
▁बैक	-11.4293
▁भ्वाइस	-11.4293
▁खातुन	-11.4293
▁परित्याग	-11.4293
▁मनकामना	-11.4293
▁प्रतीक्षा	-11.4293
▁उद्योगका	-11.4294
▁एकदिन	-11.4296
▁प्रतिवेदनले	-11.4297
▁भोज	-11.4298
▁सर्लाहीमा	-11.4301
▁राष्ट्रसंघीय	-11.4302
▁हा	-11.4305
▁थाल्ने	-11.4309
▁बढाउँछ	-11.431
▁पुरुषले	-11.4311
▁जयन्ती	-11.4311
▁मतदानमा	-11.432
▁आउनुभएको	-11.432
ढ	-11.4323
▁विभागबाट	-11.4327
▁सांसद्	-11.4328
अनुरूप	-11.4331
▁सीमाना	-11.4331
▁तालिवान	-11.4332
▁ब्रोकर	-11.4334
द्धारा	-11.4337
▁योगेन्द्र	-11.4339
▁वर	-11.4339
▁तान्ने	-11.434
▁शृंखला	-11.434
▁गार्हस्थ	-11.434
▁प्याकुरेल	-11.434
▁मिहिनेत	-11.434
▁अग्रिम	-11.434
▁उन्मुक्ति	-11.434
▁फाराम	-11.434
▁ढलान	-11.434
▁खबरदारी	-11.434
▁स्पष्टिकरण	-11.4341
भएको	-11.4341
▁यसपाली	-11.4343
▁झैँ	-11.4348
▁हरिप्रसाद	-11.4349
▁बगर	-11.435
▁सिमरा	-11.4352
▁हेरे	-11.4352
▁साधनमा	-11.4352
▁स्	-11.4352
ताको	-11.436
इन	-11.4362
▁मुद्राको	-11.4367
▁खोजेर	-11.4369
▁ढाँचा	-11.437
▁कागजपत्र	-11.4372
▁बिओपी	-11.4375
▁अनुबन्ध	-11.4377
▁तेलको	-11.4377
▁सिइओ	-11.438
▁पार्टीबीच	-11.4381
▁दस	-11.4386
▁फुयाँल	-11.4387
▁मर्मतसम्भार	-11.4387
▁कृष्णगोपाल	-11.4387
▁मिचेर	-11.4388
फरक	-11.4388
▁घटाएर	-11.4389
▁सुशीला	-11.439
▁यम	-11.439
▁दिँदैन	-11.4394
▁लाइट	-11.4397
तर्फको	-11.4401
▁जु	-11.4401
▁अर्गानिक	-11.4404
▁ब्रिफिङमा	-11.4405
▁रुम	-11.441
▁बहन	-11.4412
▁लयमा	-11.4413
▁दीर्घ	-11.4413
उन	-11.4413
▁पहिलेको	-11.4415
▁सर्ट	-11.4417
▁कार्यदलका	-11.4417
▁परिवारजन	-11.4418
▁कतारमा	-11.442
▁बनेकी	-11.4421
▁म्याड्रिड	-11.4423
▁दिएनन्	-11.4425
▁स्थानीयस्तर	-11.4426
▁आइपुग्ने	-11.4428
▁बृहत	-11.4431
▁सर्लाहीका	-11.4431
▁एक्कासी	-11.4434
▁वैवाहि	-11.4434
▁अग्रणी	-11.4434
▁बेसार	-11.4435
ैपर्ने	-11.4435
▁चाहन्छौं	-11.4435
▁सहन	-11.4435
यल	-11.4439
पर	-11.4439
िएर	-11.4439
▁इटालीमा	-11.4443
▁पछिल्लोपटक	-11.4445
▁चिन	-11.4446
▁अघिदेखि	-11.4451
▁अक्षर	-11.4455
▁च्यासल	-11.446
▁उद्योगहरु	-11.446
▁सर्वोत्कृष्	-11.4461
▁मनाउँदै	-11.4464
▁वेबसाइट	-11.4464
▁तथ्याङ्कमा	-11.4467
▁हातहतियार	-11.4469
▁वचन	-11.447
▁१४०	-11.4472
▁सातदोबाटो	-11.4475
▁सिमा	-11.4475
▁सदस्यबाट	-11.4477
▁विषेश	-11.4478
▁गोल्डेन	-11.4479
▁सोझै	-11.448
▁फाइबर	-11.4481
▁शरीरका	-11.4489
कृत	-11.4491
▁मङ्गलवार	-11.4492
▁श्रीमतीको	-11.4493
▁अलमल	-11.4493
▁३५०	-11.4493
▁यिनीहरु	-11.4495
▁उपमेयर	-11.4496
▁पारिएका	-11.4497
▁टाइम	-11.4497
▁अपेक्षित	-11.4498
कुशल	-11.4499
▁उत्पादनमूलक	-11.45
▁काल	-11.4505
▁अनुमानित	-11.4505
▁ल्याउँदै	-11.4507
▁मेस्सीले	-11.4508
▁सन्दीपले	-11.4508
▁अपडेट	-11.4508
▁कानूनको	-11.451
▁चल्दै	-11.451
▁होस	-11.4513
▁चेन	-11.4516
▁एफसी	-11.4518
▁श्यया	-11.452
▁ओभरको	-11.452
ायो	-11.4522
▁माझ	-11.4524
▁खोले	-11.4524
▁खासमा	-11.4525
▁बिताए	-11.4526
▁कावासोती	-11.4529
▁पहलकदमी	-11.4529
▁ब्रिफिङ	-11.4529
▁राकेश	-11.4529
▁निशुल्क	-11.453
▁मिल्नेछ	-11.4531
▁मनोविज्ञान	-11.4532
▁रक्सौल	-11.4535
▁हट्ने	-11.4536
▁भक्तजनको	-11.4536
▁वलीले	-11.4537
▁खोलिए	-11.4539
ीन	-11.454
▁ब्राण्ड	-11.4541
▁चट्याङसहित	-11.4541
राजमार्गअन्तर्गत	-11.4542
▁जिल्लाभर	-11.4543
▁उमेदवार	-11.4549
▁सिम	-11.4552
▁फेस	-11.4557
▁सन्त	-11.4561
▁विश्वविद्यालयमा	-11.4561
▁पाटी	-11.4562
▁भाषाको	-11.4564
▁एमालेभित्र	-11.4565
्थे	-11.4568
▁डिल्ली	-11.4573
▁रोजाइ	-11.4575
▁सञ्चय	-11.4576
▁ह्रास	-11.4577
▁क्वारेन्टाईन	-11.4577
▁मनोनीत	-11.4577
▁म्याराथन	-11.4577
▁कान्छा	-11.4577
▁छन्त्याल	-11.4577
▁मान्छेहरु	-11.4577
▁संकटा	-11.4577
िभ	-11.4584
▁नौलो	-11.4584
▁खेल्दा	-11.4584
▁जनतासँग	-11.4585
▁महिलातर्फ	-11.4589
▁युद्धमा	-11.4589
▁उठाए	-11.4591
▁हिम्मत	-11.4592
▁ओपन	-11.4593
▁जसबाट	-11.4604
पति	-11.4605
▁कू	-11.4608
▁फर्किएर	-11.4615
▁ब्याजदरमा	-11.4617
▁मञ्चमा	-11.462
▁रहस्य	-11.4624
▁मौरी	-11.4624
▁तिम्सिना	-11.4625
▁भागबण्डा	-11.4625
▁सामुहिक	-11.4625
▁परिर्वतन	-11.4625
▁महाअभियान	-11.4625
▁सार्वभौमसत्ता	-11.4625
▁शेरधन	-11.4625
▁नहोला	-11.4625
▁सुझाए	-11.4625
▁गौतमबुद्ध	-11.4625
▁महंगो	-11.4625
▁सदस्यसचिव	-11.4628
▁कारक	-11.4629
▁गाइड	-11.4631
▁सघाउ	-11.4631
▁हाइ	-11.4635
न्ड	-11.4636
▁खुलेपछि	-11.4639
▁दूर	-11.464
▁पर्सन	-11.4642
▁पश्चिममा	-11.4642
▁आईसीयूमा	-11.4647
▁फोरजी	-11.4647
▁हुनसके	-11.4653
▁तथ्यांकमा	-11.4653
▁गैरे	-11.4654
▁सभामुखको	-11.4657
▁आना	-11.4663
▁हराए	-11.4664
▁थापाथली	-11.4665
▁पुलमा	-11.4666
▁संकटकाल	-11.4667
▁१०३	-11.4668
▁टप	-11.4672
▁एकदम	-11.4672
▁संग्रहालय	-11.4672
▁ह्याट्रिक	-11.4673
▁ओमप्रकाश	-11.4673
▁लाइभ	-11.4673
▁शैलेन्द्र	-11.4674
▁महिने	-11.4674
▁सिङ्गो	-11.4674
▁विघटनपछि	-11.4675
▁श्रद्धा	-11.4675
▁डोरो	-11.4675
▁निस्किएको	-11.4676
▁बिरामीहरु	-11.4676
पु	-11.4677
▁शब्दमा	-11.468
▁तहसँग	-11.4691
▁गर्नुपर्	-11.4692
▁उनीहरूका	-11.4695
▁अनिता	-11.4697
▁हाे	-11.4698
▁छाक	-11.47
▁सहभागितामा	-11.4702
▁डेस्क	-11.4704
▁जावलाखेल	-11.4705
▁गोचर	-11.4707
▁अस्पतालहरु	-11.4708
▁बज्राचार्य	-11.4713
▁हाजिर	-11.4713
▁अस्तव्यस्त	-11.4717
▁लाज	-11.4721
▁दोगडाकेदार	-11.4722
▁शिवाकोटी	-11.4722
▁सङ्खुवासभा	-11.4722
▁फाईदा	-11.4722
▁सुचना	-11.4722
▁सिलगढी	-11.4722
▁आरती	-11.4722
▁जवाफी	-11.4725
▁निशान	-11.4725
▁चलाउँदै	-11.4726
▁अधिकारका	-11.4726
▁त्यत्तिकै	-11.4727
▁सञ्	-11.4728
▁१०९	-11.4729
▁बायाँ	-11.4731
▁अंकित	-11.4732
▁इनर्जी	-11.4735
▁थपेर	-11.4735
▁वार्डमा	-11.4735
▁गल्फ	-11.4736
▁नेपालीहरू	-11.4736
शा	-11.4739
रहेका	-11.4746
▁बोर्डमा	-11.4747
▁दर्शनार्थी	-11.4749
▁महाभारत	-11.4749
रिया	-11.475
▁ग्रिन	-11.4751
▁ः	-11.4755
▁प्याड	-11.4757
▁कार्टुन	-11.476
▁झन्झट	-11.4761
▁रायमाझीले	-11.4762
▁१०५	-11.4763
▁लिमिटेडका	-11.4768
▁हिलो	-11.4769
▁विष्फोट	-11.477
▁ज्यालादारी	-11.477
▁व्यक्तिहरुलाई	-11.4771
▁नजिकिँदै	-11.4772
▁पुग्छन्	-11.4774
▁फूलको	-11.4776
▁कसैसँग	-11.4781
▁सम्बन्धन	-11.4784
▁भेटिएपछि	-11.4787
ाल	-11.4787
चौर	-11.4791
२७	-11.4791
▁भएकामध्ये	-11.4793
▁हामीकहाँ	-11.4796
▁साझेदारीमा	-11.48
▁भेटे	-11.4802
▁फिलिपिन्स	-11.4803
बु	-11.4807
▁सेटिङ	-11.4808
▁भरे	-11.4808
▁हट	-11.4808
▁तपाईंहरू	-11.4815
▁अनुसन्धानकर्ता	-11.4818
▁मध्यपुरथिमि	-11.4819
▁बञ्चित	-11.482
▁मलेसियामा	-11.482
▁गुणस्तरहीन	-11.4821
▁घिमिरेको	-11.4821
▁फोकल	-11.4822
▁संरक्ष	-11.4824
▁माई	-11.4825
▁अपनाइए	-11.4826
▁फ्रिज	-11.4828
▁अब्दुल	-11.4829
चि	-11.483
▁प्रतिस्पर्धीहरु	-11.4832
▁घरबाहिर	-11.4832
▁तवर	-11.4834
▁कास्कीको	-11.4841
▁उत्रिएको	-11.4843
▁सदस्यसमेत	-11.4844
▁कोसी	-11.4846
▁घटनाहरु	-11.4848
▁क्रेडिट	-11.4851
▁पहिरोको	-11.4858
▁लक्ष्यसहित	-11.4858
४१	-11.4859
▁तुल्याउन	-11.486
▁विघट	-11.4862
▁दाग	-11.4864
▁बास्तोला	-11.4869
▁हवल्दार	-11.4869
▁अवहेलना	-11.4869
▁विर्तामोड	-11.4869
▁अष्टलक्ष्मी	-11.4869
▁लडे	-11.4869
▁विमोचन	-11.4869
▁लोकेन्द्र	-11.4869
▁उतै	-11.4869
▁एयरलाइन्सको	-11.4873
▁हात्तीको	-11.4875
▁समेट्ने	-11.4877
▁घोडा	-11.4878
▁बन्दाबन्दीको	-11.4879
▁उपनिर्वाचनमा	-11.488
▁एघार	-11.4882
वापत	-11.4884
▁सूर्यबहादुर	-11.4884
▁१३०	-11.4885
▁प्रकाशशरण	-11.4887
▁नवनिर्वाच	-11.4888
▁लण्डन	-11.4889
▁पुर्व	-11.489
▁नखुलेको	-11.4891
▁युवतीलाई	-11.4892
▁जितेन्द्र	-11.4899
▁सर्लाहीको	-11.4901
▁खने	-11.4907
▁मध्यपूर्व	-11.4908
▁हुम्लामा	-11.491
▁डटकम	-11.4915
▁भृकुटीमण्डप	-11.4918
▁सत्यतथ्य	-11.4918
▁कोशिस	-11.4918
▁मोडेल	-11.4919
▁उद्यमशीलता	-11.4919
▁गजेन्द्र	-11.4919
▁पूर्वराजा	-11.4919
▁महासभा	-11.4919
▁भ्रममा	-11.4921
▁हिउँद	-11.4926
रुप	-11.4928
पाल	-11.4929
▁बेलैमा	-11.4931
▁प्रविधिमा	-11.4934
▁प्रिमियम	-11.4936
▁टिकटक	-11.4938
▁फेर्ने	-11.4938
▁सेक्युरिटी	-11.4939
▁अपील	-11.4939
▁चोर	-11.494
▁बलर	-11.494
▁गाउँले	-11.4943
▁प्रदर्शनका	-11.4945
▁बाटोबाट	-11.4945
▁निष्ठा	-11.4949
▁१११	-11.4953
काजी	-11.4953
▁दिदै	-11.4954
▁स्टाटस	-11.4954
ेस	-11.4958
थ्यो	-11.496
▁पहिल्यै	-11.4961
▁नलिई	-11.4962
▁मिष्ठान्न	-11.4968
▁सिन्डिकेट	-11.4968
▁भाइटीका	-11.4968
▁नारायणहिटी	-11.4968
▁रजिष्ट्रार	-11.497
▁काँकडभिट्टा	-11.4972
▁बिदाइ	-11.4972
▁पकाउने	-11.4973
▁अस्वस्थ	-11.4974
▁मसान्तसम्ममा	-11.4974
▁महान्	-11.4974
ष्ट	-11.4975
▁दर्जा	-11.4976
▁फैलिरहेको	-11.4976
▁चिनिने	-11.4985
▁क्याम्पसमा	-11.4987
▁सम्माननीय	-11.4987
▁इजाजत	-11.4993
▁गरीएको	-11.4994
▁पर्यटनमन्त्री	-11.4995
▁वास	-11.4996
▁पोखे	-11.4997
▁विश्वभरि	-11.5002
▁गृहमन्त्रालय	-11.5003
▁दशैँमा	-11.5004
▁ट्याङ्की	-11.5004
कर्ता	-11.5006
▁बाँझो	-11.5007
▁डम्बर	-11.5016
▁डाँडामा	-11.5016
▁प्रतिद्वन्द्वी	-11.5018
▁बोतल	-11.5018
▁पुनरुत्थान	-11.5018
▁प्रतिष्ठित	-11.5018
▁नम्वर	-11.5018
▁मन्त्रीपरिषद्	-11.502
▁बालकोट	-11.5023
्थ्यो	-11.5024
▁वीरबहादुर	-11.5025
▁टार्न	-11.5032
▁असफलता	-11.5034
▁बखत	-11.5036
▁छिरिङ	-11.504
▁सम्बन्धीत	-11.5045
▁चट्टान	-11.505
▁दिएन	-11.5053
▁समूहसँग	-11.5054
दुई	-11.5058
ोन	-11.5058
▁मिसाए	-11.506
▁निकाले	-11.5061
▁पुरूष	-11.5061
▁झैं	-11.5065
▁तीब्र	-11.5066
▁निर्वाचनपछि	-11.5067
▁कुश्मा	-11.5068
▁पुण्य	-11.5068
▁शिष्टाचार	-11.5068
▁ओखलढुङ्गा	-11.5068
▁विच्छेद	-11.5068
▁असहयोग	-11.5068
▁इन्दिरा	-11.5069
▁दशौँ	-11.5071
▁बिरामीका	-11.5071
▁बुझे	-11.5072
▁रसायन	-11.5073
▁चारैतिर	-11.5074
नौं	-11.5076
▁बन्देज	-11.5077
▁भनिरहेका	-11.5077
▁रुची	-11.5078
२४	-11.5098
हर	-11.5102
▁भएलगत्तै	-11.5104
▁आफुलाई	-11.5105
▁कार्यदिशा	-11.5106
▁स्वीकार्य	-11.5107
▁चौमासिक	-11.5113
▁निष्क्रिय	-11.5116
भने	-11.5116
शमशेर	-11.5117
▁अल्पमत	-11.5118
▁स्वेच्छाचारी	-11.5119
▁सिराहा	-11.5119
▁असम्भव	-11.5119
▁तिनीहरू	-11.5119
▁आफनो	-11.512
▁पाउँदैनन्	-11.512
नौँ	-11.5122
▁वैधानिकता	-11.5122
▁नामकरण	-11.5124
▁खुर्सानी	-11.5125
▁मुखिया	-11.5127
▁संगठनात्मक	-11.5128
▁मारिएको	-11.513
▁माता	-11.5131
▁लिइन्छ	-11.5132
▁समाते	-11.5134
▁बोइङ	-11.5135
▁फ्यान	-11.5136
▁निस्किएका	-11.5138
▁परिचाल	-11.5141
ँदा	-11.5144
▁माने	-11.5145
▁समाजिक	-11.5145
थे	-11.5147
▁लान	-11.5149
राशि	-11.515
▁हुँदैछन्	-11.5151
▁कोर्स	-11.5153
▁दिलाउने	-11.5154
▁ऋणी	-11.5154
▁परियोजनामा	-11.5154
▁कथित	-11.5155
आई	-11.5155
कल	-11.5161
▁कोलम्बिया	-11.5167
▁श्रद्धाञ्जलि	-11.5169
▁गोलरक्षक	-11.5169
▁वकालत	-11.5169
▁इंग्ल्याण्ड	-11.5169
▁मोक्तान	-11.517
▁स्मार्टफोन	-11.517
▁परिक्षणका	-11.517
▁बलात्कारका	-11.517
▁गैंडा	-11.5174
▁आरक्ष	-11.5174
▁गरिसक्ने	-11.5175
▁व्यवसायबाट	-11.5177
३५	-11.518
▁गरिसकिएको	-11.5181
▁परिषदको	-11.5181
▁आशय	-11.5191
▁क्रियाकलापमा	-11.5191
▁पुस्ताका	-11.5194
▁व्यवहारिक	-11.5197
▁रियाल	-11.5198
▁ट्वान्टी	-11.5203
▁स्टिल	-11.5205
्वा	-11.5207
▁गैरजिम्मेवार	-11.5209
▁घटेका	-11.5212
▁चैतदेखि	-11.5212
▁भागेका	-11.5213
▁९००	-11.5214
▁पोखराका	-11.5216
▁कार्यका	-11.522
▁कालीमाटी	-11.5221
▁पोष्टमार्टम	-11.5221
▁परिसंघ	-11.5221
▁परिपाटी	-11.5221
▁भैंसी	-11.5221
▁चल्यो	-11.5221
▁विज्ञप्ती	-11.5221
प्रदेश	-11.5221
▁साकार	-11.5222
▁स्वस्थ्य	-11.5222
▁दुवैतर्फ	-11.5224
▁इलाममा	-11.5228
▁अक्सफोर्ड	-11.5229
यदी	-11.5232
▁यसतर्फ	-11.5236
▁वर्षासँगै	-11.5238
▁सेनामा	-11.5247
▁मिडियाले	-11.5249
▁तिर्नु	-11.5252
▁जमेको	-11.5253
▁पुनर्निर्माणका	-11.5254
▁प्राप्ती	-11.5261
▁संचार	-11.5263
▁गृहमा	-11.5268
▁याम	-11.5271
▁चिडियाखाना	-11.5272
▁पदपूर्ति	-11.5272
▁संग्रौला	-11.5272
▁सम्बन्धविच्छेद	-11.5272
▁शैंया	-11.5272
▁भोकमरी	-11.5272
▁प्रजापति	-11.5272
▁बल्खु	-11.5272
▁लेभल	-11.5274
▁सेवाबाट	-11.5274
▁समिट	-11.5275
▁चालेको	-11.5276
▁थानकोट	-11.5276
▁मतदानस्थल	-11.5287
बिच	-11.5293
लु	-11.5294
▁रारा	-11.5295
▁स्टल	-11.5295
▁भाइरसले	-11.5298
▁दुइ	-11.5298
▁भन्थे	-11.5301
क्यान	-11.5302
▁विधानअनुसार	-11.5303
▁साहस	-11.5305
▁निर्णयबाट	-11.5305
वास	-11.531
▁टोलमा	-11.5321
▁अक्षय	-11.5321
▁डु	-11.5323
▁धाम	-11.5323
▁चिठी	-11.5323
▁आलोपालो	-11.5323
▁रानाभाट	-11.5323
▁बिशेष	-11.5323
▁शालिक	-11.5324
▁महाअभियोग	-11.5327
▁अँध्यारो	-11.5327
▁भाई	-11.5328
▁बढ्नुपर्छ	-11.5329
▁गाउन	-11.5329
सकिरहेका	-11.5331
▁शतक	-11.5332
▁राख्छ	-11.5332
▁दिनमान	-11.5334
▁मन्त्रिपरिषद्मा	-11.5335
▁बालेर	-11.5335
▁संचालक	-11.5336
▁साथीहरुले	-11.5337
▁पर्खाइमा	-11.5338
▁गर्दे	-11.5338
▁सम्झौतापत्रमा	-11.5338
▁टनेल	-11.534
▁पछी	-11.5345
▁दिउसो	-11.5347
▁अडानमा	-11.5349
▁साप्ताहिक	-11.5349
▁स्वामी	-11.5352
▁वाइडबडी	-11.5352
▁नपुगेका	-11.5352
▁चेत	-11.5353
▁स्कुलमा	-11.5353
▁अपनाएको	-11.5355
▁अनुभवी	-11.5364
▁पार्टनर	-11.5364
▁मुलक	-11.5369
▁उपप्रधान	-11.5373
▁दिइन्छ	-11.5373
▁अनुकुल	-11.5375
▁अन्वेषण	-11.5375
▁दरखास्त	-11.5375
▁सिन्हा	-11.5375
▁अन्त्येष्टि	-11.5375
▁दाहसंस्कार	-11.5375
▁सर्जिकल	-11.5375
▁लिइने	-11.5375
▁मच्छिन्द्रनाथ	-11.5375
▁क्रोएसिया	-11.5376
▁२०७५७६	-11.5376
▁मनाइन्छ	-11.5376
▁करियर	-11.5377
▁गरिन्थ्यो	-11.5377
▁नजिकबाट	-11.5382
शम्शेर	-11.5382
▁सिकाउने	-11.5382
▁भेटघाटमा	-11.5383
▁काख	-11.5384
▁हुदैन	-11.5385
वल	-11.5386
▁ओपनर	-11.5387
▁कसूर	-11.5389
▁रोमाञ्चक	-11.539
्ट	-11.5391
▁डाँगी	-11.5394
▁अर्थपूर्ण	-11.5394
▁कुलो	-11.5399
▁रञ्जित	-11.5399
धेरै	-11.5399
▁मानिएका	-11.5402
▁श्रोत	-11.5406
▁नहुँदासम्म	-11.5409
कालागि	-11.5412
▁देशैभर	-11.5413
▁खुब	-11.5417
▁टेनिस	-11.542
▁तिरे	-11.5424
▁सुनाइन्	-11.5426
▁पूँजीगत	-11.5426
▁कार्यदलमा	-11.5427
▁ग्याँस	-11.5427
▁कञ्चन	-11.5427
▁नेयमार	-11.5427
▁चाँगुनारायण	-11.5427
ीकृत	-11.5427
▁इन्जुरी	-11.5427
▁म्यासेज	-11.5427
▁लेनदेन	-11.5427
▁हवाइ	-11.5427
▁पुछार	-11.5428
▁कपूर	-11.5428
▁धानबाली	-11.5428
▁फ्लाइट	-11.5428
▁प्रतिगामी	-11.5429
▁पञ्जा	-11.5431
▁डुङ्गा	-11.5432
▁बिगो	-11.5432
▁सांगठनिक	-11.5434
▁गतेसम्मका	-11.5434
▁गुमाउनु	-11.5435
▁एक्लो	-11.5435
▁ऊर्जामन्त्री	-11.5442
▁आहार	-11.5443
▁प्लाष्टिक	-11.5446
▁नेताका	-11.5448
▁बाटा	-11.5452
▁सिरहामा	-11.5457
▁आँप	-11.5462
▁भिजन	-11.5463
▁नुवाकोटको	-11.5464
▁नोभेम्बरमा	-11.5467
▁मस्तिष्क	-11.5471
▁हैरान	-11.5471
▁तुइन	-11.5474
▁जोर्डन	-11.5475
▁ठुला	-11.5475
▁उकास्न	-11.5477
▁सक्दछ	-11.5478
▁आव्हान	-11.548
▁दस्तुर	-11.548
▁न्युजिल्यान्ड	-11.548
▁समिक्षा	-11.548
▁दम्भ	-11.548
▁लालबन्दी	-11.548
▁लैजाँदै	-11.548
▁चौपाया	-11.548
▁हर्कत	-11.548
▁कुराहरू	-11.5484
▁त्यसभन्दा	-11.5485
▁गइरहेका	-11.5486
▁कोणबाट	-11.5487
▁पहेँल	-11.5489
▁पुगी	-11.549
▁भीमसेन	-11.5491
बर्दघाट	-11.5492
वान	-11.5493
▁कर्पोरेट	-11.5501
▁प्रवेशद्वार	-11.5502
▁रोज	-11.5503
▁बजेटबाट	-11.5505
▁जनाउने	-11.5508
▁अनेरास्ववियू	-11.5511
▁राष्ट्रहरु	-11.5514
▁इन्च	-11.5514
▁क्रिकेटर	-11.5516
▁बर	-11.5516
▁स्वरमा	-11.5517
▁सिक्टा	-11.5524
▁माग्दै	-11.5524
▁नाता	-11.5531
▁उतारचढाव	-11.5532
▁शोभा	-11.5532
▁विदुर	-11.5532
▁जिन	-11.5533
ुर	-11.5533
▁विद्युतीकरण	-11.5535
▁बस्छन्	-11.5536
ध्वज	-11.5536
▁इन्द्रबहादुर	-11.5537
निक	-11.5538
▁राजाराम	-11.5538
▁लिइरहेका	-11.5541
▁तनहुँमा	-11.5545
▁बाह्र	-11.555
▁कास्कीमा	-11.5553
▁सुके	-11.5561
▁डबल	-11.5561
▁गरें	-11.5563
▁सामग्रीहरु	-11.5563
▁प्रवद्र्धनमा	-11.5564
▁कोहि	-11.5568
▁राजधानीका	-11.5568
▁मागहरु	-11.557
▁उनीहरुमध्ये	-11.5578
▁संरक्षक	-11.5579
▁सक्न	-11.5583
▁ताइवान	-11.5584
▁घटाएको	-11.5585
▁पुनरावेदन	-11.5585
▁रेखदेख	-11.5585
▁शुक्लागण्डकी	-11.5585
▁कुहिरो	-11.5585
▁पुरातत्व	-11.5585
ुपर्	-11.5585
▁क्लिनिक	-11.5586
▁प्रतिकार्य	-11.5587
▁दर्जनौँ	-11.5588
▁दशौं	-11.5588
▁बाराको	-11.5588
▁माइक	-11.5589
▁फास्ट	-11.559
▁पाँचजना	-11.5593
▁हरिबहादुर	-11.5594
▁पौष	-11.5597
▁चलाउँदा	-11.5597
▁मिनी	-11.56
▁जमिनको	-11.5603
▁सबैसँग	-11.5607
▁११९	-11.5608
▁व्यवसायको	-11.5608
▁जनकपुरमा	-11.5609
▁केटा	-11.561
▁चित्रकार	-11.5612
▁युक्रेन	-11.5614
▁शाखामा	-11.5615
▁पर्यटकहरु	-11.5617
▁नगरेर	-11.5621
▁हुनुभयो	-11.5622
▁करोडौँ	-11.5626
▁नगरवासी	-11.5629
४४	-11.5634
▁नेपालस्थित	-11.5637
▁भटमास	-11.5638
▁हारे	-11.5639
▁२००९	-11.5639
▁बनाइरहेको	-11.5639
▁सम्पति	-11.564
▁लेखनाथ	-11.564
▁मीरा	-11.564
▁ठ्याक्क	-11.5641
▁समीर	-11.5641
▁लेस्टर	-11.5642
▁रातारात	-11.5645
▁ऋणपत्र	-11.5646
▁सिक्ने	-11.565
ुन	-11.5651
निकट	-11.5651
▁सक्रियतामा	-11.5653
▁भइसके	-11.566
▁मर्मतका	-11.5662
्ल	-11.5665
३८	-11.567
▁हाउसमा	-11.5672
जङ्ग	-11.5675
▁वली	-11.5677
बाहेकका	-11.5678
▁११६	-11.5684
▁ललिता	-11.5684
▁नंको	-11.5688
▁सुरुदेखि	-11.569
▁चप्पल	-11.5692
▁सुनुवार	-11.5692
▁आवधिक	-11.5692
▁वित्तिय	-11.5693
▁असमानता	-11.5693
▁टेकबहादुर	-11.5696
▁बदला	-11.5697
▁पाएकी	-11.5699
▁माघी	-11.5699
▁घण्टाभित्र	-11.5699
▁अघिसम्म	-11.5702
▁अहमद	-11.5703
▁वर्षमै	-11.5703
▁इजिप्ट	-11.5706
त्यो	-11.5707
▁दायाँ	-11.5708
▁खनालको	-11.571
▁बैंकर्स	-11.571
▁नगरपालिकाभित्र	-11.571
▁उति	-11.5712
▁क्लिन	-11.5714
▁तपाइँ	-11.5716
▁बाहिरिए	-11.5718
▁शहरबाट	-11.5719
▁नजान	-11.5727
▁भाले	-11.5729
▁व्यक्तिसँग	-11.5733
▁११७	-11.5736
▁शारदा	-11.5741
▁मेमोरियल	-11.5746
▁नामाकरण	-11.5746
▁इटली	-11.5746
▁कार्यविभाजन	-11.5746
▁कयौं	-11.5746
▁रिफर	-11.5746
▁ठ	-11.5746
▁राधा	-11.575
▁लेखेकी	-11.5756
▁बुझाई	-11.5758
▁पशुपन्छी	-11.576
▁शरिर	-11.5762
▁लैंगिक	-11.5762
▁कानुनमन्त्री	-11.577
▁लिनका	-11.5774
ठा	-11.5775
बास	-11.5776
कार्य	-11.5777
▁महानगरका	-11.5781
▁अलाव	-11.5783
▁पदीय	-11.5783
७६	-11.5784
▁सघाउन	-11.5785
▁जुनियर	-11.5785
▁भी	-11.5786
▁पाखा	-11.5788
▁क्षमा	-11.5789
▁१६८	-11.5789
▁केटाकेटी	-11.5791
▁सम्झौताको	-11.5791
▁उपचारकै	-11.5795
▁डेब्यु	-11.58
▁मादक	-11.58
▁सामिप्यता	-11.58
▁मनग्य	-11.58
▁सुनाउँछन्	-11.5801
▁पान	-11.5801
▁देखिन्थ्यो	-11.5802
▁भन्छु	-11.5806
▁अनिलकुमार	-11.5807
्रो	-11.5807
▁सातदोबाटोस्थित	-11.5807
वाल	-11.5816
▁ब्ल्याक	-11.5817
▁तलमाथि	-11.5819
▁लाम	-11.5822
▁हिरा	-11.5822
प्रचण्ड	-11.5823
▁खुलाइए	-11.5826
▁डोटीमा	-11.5826
नरसिंह	-11.5829
▁न्युज	-11.5834
▁मन्त्रीहरू	-11.5836
▁अल्पसंख्यक	-11.5847
▁समेट्न	-11.5849
▁एभरेष्ट	-11.5854
▁रुपैँया	-11.5854
▁जीविकोपार्जन	-11.5854
▁धवलागिरि	-11.5854
▁श्रमजीवी	-11.5854
▁असाधारण	-11.5854
▁मेरै	-11.5855
▁राजाको	-11.5857
▁कोपा	-11.5857
▁तिनीहरु	-11.5857
▁दिपेन्द्र	-11.5858
▁पार्टीसँग	-11.586
▁गुमेको	-11.586
▁निम्त्याउने	-11.586
गढी	-11.5861
▁उपमहानगर	-11.5864
▁भोग्नु	-11.5869
▁विरूद्ध	-11.5871
▁अहोरात्र	-11.5871
▁चौडा	-11.5877
▁कृषिजन्य	-11.5885
्रा	-11.5886
▁सोधेका	-11.5888
▁बीस	-11.5893
▁बिषय	-11.5893
▁सत	-11.5895
▁प्रगतिशील	-11.5895
▁प्रतिनिधिहरु	-11.5895
▁मञ्जु	-11.5896
▁प्रतिकुल	-11.5904
▁ईज्जत	-11.5908
▁करिअर	-11.5909
▁कामचलाउ	-11.5909
▁सोझो	-11.5909
▁मुस्कान	-11.5909
▁म्यानेजमेन्ट	-11.5909
▁जनासम्म	-11.5912
▁मसला	-11.5913
▁सम्मानजनक	-11.5914
▁क्या	-11.5916
नेपाली	-11.5916
▁बाला	-11.5916
▁बाँस	-11.5918
▁चुलिए	-11.592
▁चन्द्रबहादुर	-11.592
▁अपनाउनुपर्ने	-11.5922
▁आवतजावतमा	-11.5926
▁मधु	-11.5926
न्द्र	-11.5927
▁ईश्वरी	-11.5932
▁रौतहटमा	-11.5934
▁प्रविधिबाट	-11.5935
▁आरडिटी	-11.5936
▁उन्नति	-11.5937
▁गङ्गा	-11.5937
दि	-11.5939
▁इरानी	-11.5939
▁सरदर	-11.5939
▁सक्नुपर्ने	-11.5942
▁बुझ्दै	-11.5945
▁सुनसरीका	-11.5947
ियन	-11.5948
▁प्रेसर	-11.5951
▁घाटामा	-11.5954
▁घुम्ती	-11.5957
▁इनरुवा	-11.5958
▁सञ्चारमन्त्री	-11.5958
▁भान्सा	-11.5963
▁सञ्चारकर्मीसँग	-11.5963
▁चौंथो	-11.5964
नाजुक	-11.5964
▁रत्नपार्क	-11.5964
▁प्रख्यात	-11.5964
▁मतलब	-11.5964
▁प्रसाईं	-11.5965
▁झुटो	-11.597
▁हेरौँ	-11.5972
▁पाएन	-11.5976
▁जीवन्त	-11.5979
▁राज्यबाट	-11.598
▁निकायहरू	-11.5982
▁पिस	-11.5985
▁शेर	-11.5988
▁छँदै	-11.5993
▁२०६२	-11.5996
▁फोनमा	-11.5997
▁अप्रत्यक्ष	-11.5997
▁वाटर	-11.6
▁दक्षता	-11.6003
▁प्रतिपदा	-11.6006
हुने	-11.6008
▁फायर	-11.601
▁डट	-11.6011
▁दौडमा	-11.6011
▁यज्ञ	-11.6012
▁द्वितीय	-11.6013
▁बाम	-11.6014
▁अस्वीकृत	-11.6019
▁नवदुर्गा	-11.6019
▁अवज्ञा	-11.6019
▁जनविश्वास	-11.6019
त्रिलोचन	-11.6019
▁बासस्थान	-11.602
खोलामा	-11.602
▁साहसिक	-11.6021
▁डलरमा	-11.6021
▁जनाउन	-11.6023
▁रहँदैन	-11.6024
▁जन्मिएको	-11.6024
▁क्याच	-11.6025
▁नक्साल	-11.6025
▁शुभेच्छुक	-11.6026
▁रकमबाट	-11.603
▁सकेमा	-11.6031
▁फैसलापछि	-11.6031
▁बताउन	-11.6033
▁सेल्फ	-11.6035
▁तान्न	-11.6035
▁सुनाएका	-11.6038
▁समुद्री	-11.6045
▁बन्नुपर्ने	-11.6052
▁मागअनुसार	-11.6058
▁अवस्थामै	-11.6059
▁आफैँमा	-11.6062
ुपर्दा	-11.6065
नुसार	-11.6069
▁अस्थिर	-11.6072
▁नदेखिए	-11.6072
स्थापित	-11.6073
▁अस्वाभाविक	-11.6074
▁कंगना	-11.6074
▁जस्तापाता	-11.6074
▁हिनामिना	-11.6074
▁लमही	-11.6074
्कासि	-11.6074
▁संवत्सर	-11.6074
▁तुलाधर	-11.6074
▁विचारमा	-11.6077
▁शनिबारदेखि	-11.6077
▁महाशिवरात्रि	-11.6078
खेरी	-11.6081
▁चाडबाड	-11.6081
▁तारिक	-11.6083
▁उत्खनन्	-11.6083
▁विश्वकपमा	-11.6085
▁पचास	-11.6086
▁बहसमा	-11.6088
▁इस्लामिक	-11.6089
तले	-11.6091
▁नजिकका	-11.6094
▁नआएका	-11.6095
▁हेक्टरमा	-11.6098
▁वर्ल्ड	-11.61
▁नेताहरुबीच	-11.6103
▁गेम	-11.6103
उपर	-11.6107
▁जीव	-11.6108
▁त्रैमासिक	-11.6111
▁बिग्रिएको	-11.6112
आइ	-11.6114
बित्दै	-11.6115
▁खस	-11.612
▁त्रि	-11.6123
▁लडाई	-11.6127
▁हनुमान	-11.6127
▁टंक	-11.6128
▁म्याग्दीका	-11.6128
▁अन्धकार	-11.6129
▁गरगहना	-11.613
▁प्रतिलिपि	-11.613
▁कटाक्ष	-11.613
▁पराक्रम	-11.6131
▁असाध्यै	-11.6131
▁धैर्य	-11.6131
▁पर्यटकीयस्थल	-11.6136
▁महर	-11.6137
उने	-11.6139
▁दोहोरी	-11.6139
▁मौलिकता	-11.6141
▁डिआइजी	-11.6143
▁चर्किए	-11.6145
▁कलाकारहरु	-11.6146
▁कांग्रेसबाट	-11.6147
▁व्यहोरे	-11.6148
टन	-11.6149
▁चढ्न	-11.6149
▁कमेडी	-11.6151
▁भ्रष्ट	-11.6151
▁१४९	-11.6154
▁उडेको	-11.6156
▁न्यूज	-11.6167
▁भल	-11.6168
▁जुटाए	-11.6169
▁बिग	-11.6169
▁पढ्दै	-11.617
क्ष	-11.6171
▁जनासहित	-11.6173
▁युरोपमा	-11.6176
▁हिँडे	-11.6177
▁साहलाई	-11.6179
ल्याण्ड	-11.618
▁चलाए	-11.618
▁बलिउडमा	-11.6181
▁गतिशील	-11.6183
चार	-11.6185
▁सयपत्री	-11.6186
▁शिलशिला	-11.6186
▁अन्नबाली	-11.6186
▁संशोधित	-11.6187
▁मध्यवर्ती	-11.6187
▁कयौँ	-11.6187
▁सुदीप	-11.6187
७२	-11.6187
▁बालबालिकामा	-11.6187
▁टोपी	-11.6188
▁ऐर	-11.6189
▁ब्याडमिन्टन	-11.6191
▁योजनाबद्ध	-11.6191
▁२०५९	-11.6192
▁प्रोटोकल	-11.6193
▁उमा	-11.6199
▁धागो	-11.6202
▁महानगरको	-11.6202
▁फुटको	-11.6206
▁साधना	-11.6209
▁लेखकले	-11.621
▁अर्व	-11.6212
▁एसएमएस	-11.6212
▁रुपा	-11.6213
▁पंक्ति	-11.6213
ुपर्यो	-11.6217
▁नागरिकहरू	-11.6221
▁अभ्यासमा	-11.6227
▁घरभित्रै	-11.6228
▁ओखलढुंगा	-11.623
▁युगमा	-11.6232
▁दाबेदार	-11.6235
▁युनियनका	-11.6235
▁१०४	-11.624
▁लेखापरीक्षण	-11.6243
▁मार्गदर्शन	-11.6243
▁सानिमा	-11.6243
▁एयरबस	-11.6243
▁विन	-11.6244
▁शरण	-11.6244
▁कोइला	-11.6244
▁पूर्ववत्	-11.6245
▁जतिबेला	-11.6245
▁वस्तुगत	-11.6246
▁फोर	-11.6246
▁कानूनमन्त्री	-11.6247
▁छाडे	-11.6248
▁ढल्केबर	-11.625
▁पुयाउने	-11.625
▁माइक्रो	-11.6251
▁आन्दोलनरत	-11.6251
▁चौकीमा	-11.6251
▁११३	-11.6251
▁भत्काउने	-11.6251
▁छल्न	-11.6255
▁वस्ती	-11.6255
▁व्यवसायीका	-11.6255
▁घट	-11.6256
विन	-11.6257
▁रेलवे	-11.6257
▁डोल्पामा	-11.6261
▁रोटी	-11.6269
▁सूचि	-11.6276
▁छपाइ	-11.6276
▁राहतको	-11.6277
▁धातु	-11.6279
मुख	-11.6282
▁पञ्चाङ्ग	-11.6285
▁जहाजमा	-11.6293
▁बडाल	-11.6295
▁खहरे	-11.6297
▁आँकडा	-11.63
▁बलात्कृत	-11.63
▁सखाप	-11.63
▁बगाउँदा	-11.63
▁हरायो	-11.63
▁हातपात	-11.6301
▁कोरियन	-11.6302
▁पन्थी	-11.6304
▁जुस	-11.6304
▁अर्की	-11.6306
▁भाग्न	-11.631
▁जान्छु	-11.6314
वारी	-11.6315
▁इन्टरनेटको	-11.6317
▁लालपुर्जा	-11.6318
▁दलसँग	-11.632
▁विसर्जन	-11.6321
▁प्रदर्शनीमा	-11.6323
▁पन्ध्र	-11.6329
▁घाट	-11.6332
▁समुद्र	-11.6332
▁प्लान	-11.6333
▁पाइएका	-11.6333
▁काठको	-11.6335
▁इन्धनको	-11.6344
▁मादी	-11.6347
▁३३०	-11.6349
▁अटेर	-11.6349
▁त्यसविरुद्ध	-11.6351
मि	-11.6353
▁शिशिर	-11.6357
▁निर्दोष	-11.6357
▁पारदर्शिता	-11.6357
▁त्यतिखेर	-11.6357
▁क्षेत्राधिकार	-11.6358
▁व्यहोरा	-11.6358
▁मनस्थिति	-11.6358
▁सापटी	-11.6358
▁रोप्ने	-11.6364
▁श्ययाको	-11.6368
▁प्रताप	-11.6368
▁फुटाउने	-11.6369
▁समझदारीपत्र	-11.6371
▁वल्र्ड	-11.6375
▁लभ	-11.6375
▁कोर्ट	-11.6377
▁प्रचण्डनेपाल	-11.6383
▁फसेका	-11.6384
▁अर्ध	-11.6388
▁कार्यालयमार्फत	-11.6399
काठमाडौं	-11.64
▁सबस्टेसन	-11.6402
▁महिलाका	-11.6405
▁साहु	-11.6413
▁आश्रय	-11.6414
▁सिक्किम	-11.6414
▁फ्रान्सेली	-11.6415
▁मुहार	-11.6415
▁सुझाएका	-11.6415
▁गोठमा	-11.6416
▁१०२	-11.6417
▁जातिको	-11.6417
▁रस	-11.6417
▁यसर्थ	-11.6419
▁जोङ	-11.6419
ाउ	-11.642
▁किटानी	-11.642
▁लैजानुपर्ने	-11.6421
▁सर्वसाधारणका	-11.6422
▁पितृ	-11.6423
▁टोटेनहम	-11.6427
▁छाडिएको	-11.643
▁नभएमा	-11.6431
▁चुरोट	-11.6433
हरूबाट	-11.6433
▁बेहोरे	-11.6434
▁लगाइएका	-11.6437
▁वेबसाइटमा	-11.6438
▁अनलाइनबाट	-11.6441
▁ताला	-11.6441
▁लगाइ	-11.6442
▁प्रशासक	-11.6443
▁वर्षमाथिका	-11.6447
▁उपस्थिती	-11.6448
▁अर्थमन्त्रालय	-11.6451
रूपले	-11.6452
▁छिन	-11.6453
▁१४६	-11.6453
▁प्याकेजमा	-11.6456
▁सङ्कटमा	-11.6459
▁हैदराबाद	-11.646
▁अवधी	-11.6462
▁१३३	-11.6469
दल	-11.6472
▁ल्यापटप	-11.6472
▁स्तब्ध	-11.6472
▁ह्वीप	-11.6472
▁आँसु	-11.6472
▁रकममा	-11.6472
▁खटाइएको	-11.6472
▁भइसक्दा	-11.6472
▁सलह	-11.6473
▁सुडान	-11.6473
▁जर्ज	-11.6474
▁समिर	-11.6476
महिला	-11.6476
▁दे	-11.6479
▁अगुवाइमा	-11.6479
▁आनन्दाद	-11.6481
▁कमाण्डर	-11.6481
▁मर्स्याङ्दी	-11.6482
▁छोडे	-11.6484
▁काठमाडौँका	-11.6485
▁४५०	-11.6486
▁गाउने	-11.6486
▁कार्यपत्र	-11.6488
▁जोखिमयुक्त	-11.6488
▁याङ	-11.6489
▁समूहगत	-11.6489
▁अन्तिमसम्म	-11.6491
▁पृष्ठ	-11.6493
▁शक्तिपीठ	-11.6498
▁गुनासा	-11.6502
▁गोलकिपर	-11.6502
्छु	-11.6511
▁आसपासमा	-11.6524
गन	-11.6524
▁स्याहार	-11.6528
▁तिब्र	-11.6528
▁भेटेका	-11.653
▁श्रृंखला	-11.653
▁जन्मकैद	-11.653
▁इज्जत	-11.653
▁पारस्परिक	-11.653
▁राजकीय	-11.653
▁विजयादशमी	-11.653
▁मनोमानी	-11.653
▁सोमपाल	-11.653
▁भातृ	-11.653
▁विद्यासुन्दर	-11.653
▁अन्तरविरोध	-11.6532
▁हालेको	-11.6533
▁पासमा	-11.6533
▁२०५८	-11.6533
▁हिल्सा	-11.6537
▁लुकेर	-11.6539
▁नाताले	-11.6541
▁फसेको	-11.6542
▁डोटीका	-11.6543
▁आयोजनाहरु	-11.6545
▁सम्वन्धी	-11.6545
▁वासुदेव	-11.6548
▁गरिरहनु	-11.6548
▁हाँस	-11.6557
▁अवस्थी	-11.6557
▁क्रिस	-11.6559
▁निस्केको	-11.6564
▁फार्ममा	-11.6565
▁नाला	-11.6566
▁लत्ताकपडा	-11.6569
▁वाचा	-11.6573
▁घट्ना	-11.6579
▁हब	-11.6584
▁कहिलेसम्म	-11.6587
▁धाँधली	-11.6588
▁बेथिति	-11.6589
▁सांगीत	-11.6589
▁शङ्कास्पद	-11.6589
▁सर्वप्रथम	-11.6589
▁गुगल	-11.6589
▁उपेक्षा	-11.6589
▁योगफल	-11.659
▁धकेलिए	-11.659
▁काठमाण्डौ	-11.6591
▁सादा	-11.6592
▁जोनसन	-11.6593
▁भजनी	-11.6593
▁१८०	-11.6595
▁ठोक्किए	-11.6595
▁बोहोरा	-11.6595
▁०७८	-11.6597
▁रोकिने	-11.6601
▁११५	-11.6601
▁पाल्ने	-11.6602
▁कट	-11.6603
▁२०२३	-11.6603
▁औसतमा	-11.6605
विद्	-11.6606
▁आइपुगे	-11.6606
▁पाइरहेका	-11.6607
▁लगानीबाट	-11.6607
▁अनुपातमा	-11.6609
▁दर्शकलाई	-11.6611
▁मरे	-11.6616
▁ट्रान्सफर	-11.6616
▁सेक्स	-11.662
▁प्रभावका	-11.6623
▁परीक्षार्थी	-11.6625
▁नेतृत्वका	-11.6626
▁ज्यू	-11.663
▁रिचार्ज	-11.6636
▁घेरा	-11.6638
वश	-11.6639
▁बताइन	-11.6639
मार्ग	-11.6641
▁स्त्री	-11.6643
▁कराँते	-11.6648
▁जडिबुटी	-11.6648
▁पाठ्यपुस्तक	-11.6648
▁पीडक	-11.6648
▁खेतीपाती	-11.6648
▁नाम्खा	-11.6648
▁ड्याम	-11.6649
▁ढाड	-11.6649
▁काठमाण्डौं	-11.6649
▁मिनाहा	-11.6649
▁बाल्यकाल	-11.6651
▁सर्न	-11.6652
▁उनीहरुबीच	-11.6655
▁महिनायता	-11.6657
▁मूलधार	-11.6657
▁चढ्ने	-11.6658
▁डिल	-11.666
राप्रपा	-11.666
▁उद्धारमा	-11.6675
स्तरका	-11.6676
▁धारिल	-11.6679
▁सतहमा	-11.6681
▁बदल्न	-11.6692
▁गौर	-11.6696
दीप	-11.67
खु	-11.6702
▁मानेका	-11.6704
▁गरीब	-11.6705
▁ग्राभेल	-11.6706
▁मछिन्द्र	-11.6706
▁स्टे	-11.6706
▁अवधिसम्म	-11.6707
▁आईसियु	-11.6707
▁लुइँटेल	-11.6707
▁विलाशी	-11.6707
▁दिनदिनै	-11.6707
▁वेपत्ता	-11.6707
▁गाँउपालिका	-11.6707
▁केबलकार	-11.6707
▁बुझाउनुपर्ने	-11.6707
▁सुर्ती	-11.6707
▁ह्यारी	-11.6707
बद्ध	-11.6708
▁बसाइँ	-11.6709
▁थाइल्यान्ड	-11.671
▁लिन्छ	-11.6711
▁प्रवाहमा	-11.6712
▁जिताउन	-11.6712
▁पञ्च	-11.6713
▁गाउँघर	-11.6713
▁वर्षात्	-11.6713
▁गन	-11.6715
▁मुलुकसँग	-11.6716
▁बाढीपहिरा	-11.6717
▁डो	-11.6718
▁खेलेर	-11.6719
▁अपाङ्ग	-11.6721
मूल्य	-11.6723
▁पोहोर	-11.6725
▁स्वचालित	-11.6725
▁केसीका	-11.6729
▁फिल्मका	-11.6734
▁कडाई	-11.6736
▁बेस्ट	-11.674
▁पश्चात्	-11.674
▁पात्रो	-11.6745
▁लग	-11.6748
▁सकिएका	-11.6749
▁देउराली	-11.6759
लिन	-11.6764
▁टर्मिनल	-11.6765
▁जीवनयापन	-11.6766
▁पाठेघर	-11.6766
▁क्रियाशिल	-11.6766
▁राधिका	-11.6766
▁प्रोटिन	-11.6766
▁बहुउद्देश्यीय	-11.6766
▁दीपिका	-11.6767
▁नियोजन	-11.6767
▁नमिल्दा	-11.6767
▁चापागाईं	-11.6767
▁मिल्यो	-11.6767
▁तिनाउ	-11.6767
▁थाहै	-11.6768
▁अग्रसरता	-11.6773
▁पाथीभरा	-11.6774
▁विद्यार्थीका	-11.6774
▁बाध्यात्मक	-11.6774
▁एकअर्का	-11.6775
▁प्रयोगका	-11.6775
▁मारेर	-11.6776
▁देखापरेको	-11.6776
नाम	-11.6781
▁अध्यक्षसमेत	-11.6782
▁दीपकराज	-11.6782
▁औषध	-11.6785
▁यि	-11.6786
म्यान	-11.6787
सरकार	-11.6791
▁निर्यातमा	-11.6792
▁नी	-11.6794
▁मनिष	-11.6802
▁स्टेज	-11.6803
बन्दी	-11.6804
▁मीना	-11.6806
५५	-11.6807
▁रेट	-11.6809
▁संविधानअनुसार	-11.681
▁मनो	-11.6812
▁पर्यटकका	-11.6813
▁वाङ	-11.6819
▁खेलिरहेका	-11.6822
▁हिम	-11.6825
▁अन्र्तगत	-11.6825
▁थुनुवा	-11.6826
▁खडेरी	-11.6826
▁डायलासिस	-11.6826
▁कोहली	-11.6826
▁मृगौला	-11.6826
▁ब्याट्री	-11.6826
▁स्वीडेन	-11.6826
▁रघुगङ्गा	-11.6826
▁तिथी	-11.6826
▁खानपिन	-11.6826
▁धिताल	-11.6826
▁अग्रपंक्ति	-11.6826
▁ड्रोन	-11.6827
क्रान्तिकारी	-11.6827
▁जान्न	-11.6828
▁रक्त	-11.6831
▁यथावत्	-11.6832
▁जबज	-11.6832
▁रुद्र	-11.6836
▁संघमा	-11.6836
▁प्राणी	-11.6837
▁रोक्नका	-11.6837
▁२०६५	-11.6838
प्त	-11.6838
▁संयोग	-11.6839
▁२०६७	-11.684
्म	-11.684
्यौं	-11.6841
▁एसईई	-11.6843
▁नर्सरी	-11.6844
▁एचआइभी	-11.6845
▁सहि	-11.6846
▁पुँजीको	-11.6846
▁भै	-11.6848
▁शिर	-11.6848
मेरो	-11.6852
▁अन्तरगत	-11.686
▁गिटी	-11.686
▁कुमाल	-11.686
गल	-11.6862
▁कोरोनाविरुद्ध	-11.6863
▁केन्द्रबीच	-11.6867
▁दुःखी	-11.6868
▁डिन	-11.6869
▁प्रवेशमा	-11.6872
▁शोध	-11.6874
पट्टि	-11.6875
▁डुबेको	-11.6882
▁तत्पर	-11.6883
रत्न	-11.6883
▁एकछिन	-11.6886
▁लिङ्देन	-11.6886
▁आशीर्वाद	-11.6886
▁सेमिनार	-11.6886
▁खलङ्गा	-11.6886
▁गौचन	-11.6886
▁घट्दो	-11.6886
▁पदावधि	-11.6887
▁खाडल	-11.6887
▁बताउनुहुन्छ	-11.6887
▁स्वयम्भू	-11.6887
▁उद्घोष	-11.6887
▁पीडितहरु	-11.6888
▁पञ्चमी	-11.6888
▁बगान	-11.6889
▁चालिसे	-11.6889
▁संगीतकार	-11.689
▁डाइरेक्टर	-11.6891
▁गुजरात	-11.6891
▁तानाशाही	-11.6892
क्रम	-11.6893
▁दुईतिहाइ	-11.6894
▁भइरहने	-11.6895
▁जिल्लाहरु	-11.6896
गाड	-11.6896
▁निम्त्याएको	-11.6896
३७	-11.6897
▁छाडेपछि	-11.6897
▁नुवाकोटमा	-11.6897
▁बर्षा	-11.6899
▁अन्तराल	-11.6899
▁याममा	-11.6902
▁कोभिशिल्ड	-11.6902
▁भु	-11.6905
▁रोल	-11.6906
▁नरहे	-11.6909
▁न्युन	-11.6912
▁हद	-11.6914
ेक	-11.6915
▁लिक	-11.6918
▁अपराधमा	-11.6922
▁जुम	-11.6928
▁लोकतन्त्रमा	-11.6928
▁१३४	-11.693
▁२०६६	-11.6931
िनु	-11.6933
▁सञ्चारमाध्यममा	-11.6934
▁पुल्चोक	-11.6935
▁तलामा	-11.6936
शासकीय	-11.6938
▁लडाकु	-11.6939
▁२२५	-11.6939
▁अहिलेकै	-11.694
▁पढ्दा	-11.694
▁विरोधका	-11.6945
▁साम	-11.6946
▁बबरमहल	-11.6947
▁भुषाल	-11.6947
▁रिक्सा	-11.6947
▁त्रिकोण	-11.6947
वित्तिकै	-11.6947
▁असिना	-11.6948
▁बेमौसमी	-11.6948
▁गोही	-11.6949
▁व्याज	-11.6949
▁निरज	-11.6949
▁सभ्य	-11.695
▁दृढता	-11.695
▁१०७	-11.6951
▁पाउनुपर्छ	-11.6951
▁पार्	-11.6952
▁डेटा	-11.6953
▁वातावरणमन्त्री	-11.6953
▁डडेलधुरा	-11.6954
▁एसएसबी	-11.6956
▁जलाशय	-11.6957
▁देखाई	-11.6958
▁ब्राउन	-11.6958
▁मागेर	-11.696
▁सुनकोशी	-11.6961
▁डेलिभरी	-11.6967
९९	-11.697
▁संयम	-11.697
▁संसदले	-11.6971
▁बिरोध	-11.6975
▁चढेको	-11.6976
सामाजिक	-11.6977
▁हराउन	-11.6978
▁पहाडमा	-11.6981
▁आईतबार	-11.6984
▁कम्पनीबाट	-11.6984
▁चिकित्सकहरुले	-11.6986
▁म्यानमारमा	-11.6989
▁राष्ट्रवाद	-11.6989
▁एमालेसँग	-11.699
▁जर्मनीमा	-11.6991
▁कथामा	-11.6996
्मा	-11.6999
▁कलेजो	-11.7004
▁मैनबत्ती	-11.7008
▁प्रगाढ	-11.7008
▁अचेल	-11.7008
▁सकिन्थ्यो	-11.7008
▁ग्रसित	-11.7009
▁फ्लु	-11.7009
▁सीताराम	-11.701
▁शे	-11.7011
▁हाबी	-11.7011
▁जाली	-11.7014
▁मेसी	-11.7015
▁फाल्ने	-11.7015
▁याउनु	-11.7015
▁१३६	-11.7015
▁तिल	-11.7016
▁खर्चिए	-11.702
▁दिइसकेका	-11.702
िस्ट	-11.7027
राजनीतिक	-11.7032
▁सुनाउने	-11.7033
▁अमेरिकासँग	-11.7036
ाङ	-11.7037
▁२०५२	-11.7037
▁अन्तर्वार्तामा	-11.7042
▁सोनाम	-11.7045
▁बस्नेछ	-11.7047
▁दिनभरि	-11.7052
ार्ई	-11.7055
▁पारा	-11.7055
▁योगदानको	-11.7055
▁मार्क	-11.7055
▁आयोगबाट	-11.7059
▁मनाए	-11.7063
▁२०००	-11.7064
▁रिपोर्टिङ	-11.7064
▁११२	-11.7065
▁मानेको	-11.7066
▁उभिन	-11.7067
▁घाईते	-11.7069
▁जघन्य	-11.7069
▁डेब्यू	-11.7069
▁इकाइ	-11.7069
▁आपत्कालीन	-11.7069
▁कम्बोडिया	-11.707
▁जर्सी	-11.707
▁बच्चन	-11.7071
▁उड्डयनमन्त्री	-11.7071
▁लाभकर	-11.7071
▁मार्चमा	-11.7072
▁कुरेर	-11.7074
▁ओखर	-11.708
▁ट्याङ्कर	-11.7081
▁अङ्ग्रेजी	-11.7084
▁पञ्चायती	-11.7084
▁कप्तानीमा	-11.7085
▁एनआइसी	-11.7085
▁मनाङमा	-11.7086
▁२०४८	-11.7087
▁गुफा	-11.7089
▁परिस्थिती	-11.7089
▁घरहरु	-11.7089
▁भएछ	-11.7093
▁याउँदै	-11.7098
▁तरल	-11.7099
▁फेरिएको	-11.71
▁वर्षमुनिका	-11.7103
▁१३औं	-11.7104
▁नेदरल्यान्ड्स	-11.7108
धन	-11.7112
▁सुजन	-11.7113
▁मुसलमान	-11.7114
▁धर्मावलम्बी	-11.7114
▁सव	-11.7115
▁पूर्वमा	-11.7116
खर्क	-11.7117
▁सङ्क्रमितहरु	-11.7117
▁बेचेको	-11.712
▁क्षेप्यास्त्र	-11.7126
यन	-11.7126
▁मकवानपुरमा	-11.7126
▁छुवाछुत	-11.7131
▁शर्मिला	-11.7131
▁सर्वसत्तावाद	-11.7131
▁रोयल्टी	-11.7131
▁परिभाषा	-11.7131
▁बदाम	-11.7131
▁सिर्जित	-11.7131
▁एकतामा	-11.7133
▁थपिँदै	-11.7133
▁सेवाहरु	-11.7134
▁सिसी	-11.7136
▁ब्यक्ति	-11.7138
▁अधिनायकवादी	-11.7139
▁रोगले	-11.7139
▁क्यामरा	-11.7139
▁दिशातर्फ	-11.7139
▁भैसकेको	-11.7141
▁पशुपंक्षी	-11.7142
▁सर्वसम्मति	-11.7142
▁सुर्य	-11.7143
्का	-11.7145
▁मान्दै	-11.7152
▁बढीरहेको	-11.7158
▁एसी	-11.7158
▁लेखिएका	-11.7161
▁विश्वलाई	-11.7162
▁बसेकी	-11.7163
▁मागे	-11.7163
▁शिक्षामन्त्री	-11.7166
बुधवार	-11.717
▁नाली	-11.7171
▁साह्र	-11.7175
▁सपिङ	-11.7176
ुहुन्न	-11.7176
▁श्रीमतीलाई	-11.7178
▁हप्तादेखि	-11.718
▁ट्विट	-11.7184
▁लगानीकर्ताहरु	-11.7188
▁लियोनल	-11.7189
▁क्लिंकर	-11.7193
▁ओबामा	-11.7193
▁रेफ्री	-11.7193
▁एनएमबी	-11.7193
▁इच्छाकामना	-11.7193
▁सुदर्शन	-11.7193
▁हावी	-11.7194
▁अभद्र	-11.7194
▁शालिकराम	-11.7194
▁सेनापति	-11.7194
▁हुँदो	-11.7196
मती	-11.7198
▁केबल	-11.7202
▁प्रवासी	-11.7203
▁मन्त्रीलाई	-11.7204
▁कत्तिको	-11.7207
▁जनप्रतिनिधिहरु	-11.7207
▁विज्ञप्तीमा	-11.7208
▁समेटिएका	-11.7209
ुङ	-11.721
▁एशोसिएशन	-11.721
▁उपत्यकाभित्र	-11.7212
▁विगतदेखि	-11.7215
▁एसएलसी	-11.7216
▁बाँच्ने	-11.7218
▁घरदैलो	-11.7227
▁तोरी	-11.7229
▁पालिकाका	-11.7229
▁सङ्ग्रह	-11.7232
▁नपुगे	-11.7232
▁रहनुपर्ने	-11.7234
▁उल्	-11.7234
सोमवार	-11.7235
▁जीवनका	-11.724
▁मञ्चन	-11.7242
▁सूत्र	-11.7243
▁संवेदनशीलता	-11.7246
▁मध्यपुर	-11.7246
▁पश्चिमा	-11.7247
▁सुगम	-11.725
▁नकआउट	-11.7256
▁प्रगती	-11.7256
▁समर्पण	-11.7256
▁नवजात	-11.7256
▁चियापान	-11.7256
▁अपरिचित	-11.7256
▁स्वाधीनता	-11.7256
▁एकतावद्ध	-11.7256
▁समयअनुसार	-11.7258
▁चित्रण	-11.7258
▁देशभक्त	-11.7258
▁प्रेमिका	-11.7258
▁सरोकारवालासँग	-11.726
▁ट्रान्सफर्मर	-11.7263
▁स्वच्छता	-11.7265
▁मातृका	-11.7269
प्रतिदिन	-11.727
ाउँछ	-11.727
▁जंगली	-11.7275
▁बुझ्नु	-11.7277
▁सुरुङमा	-11.7279
▁अभियानअन्तर्गत	-11.7286
▁ससान	-11.7286
▁किनमेल	-11.7287
▁छलेर	-11.7291
▁रिपब्लिकन	-11.7296
▁फर्किसकेका	-11.7298
बे	-11.7302
▁साताका	-11.7303
हरि	-11.7312
हु	-11.7315
▁उजूरी	-11.7319
▁हातेमालो	-11.7319
▁क्रिसमस	-11.7319
▁अनुशासित	-11.7319
▁कर्माचार्य	-11.7319
▁उत्पत्ति	-11.7319
▁सावित्रा	-11.7319
▁बामदेव	-11.7319
▁पदभार	-11.732
▁चिकित्सकहरू	-11.732
▁टीकाराम	-11.7322
रूप	-11.7322
▁खाएका	-11.7322
▁गर्दागर्दै	-11.7322
▁१९९०	-11.7323
▁दुवैजना	-11.7324
दु	-11.7326
▁बाँड्ने	-11.7327
▁स्रोतबाट	-11.7327
▁सोचेको	-11.7329
▁बै	-11.7331
▁उपायहरु	-11.7334
▁माध्याम	-11.7335
▁पठाउँदा	-11.7336
▁फिल्ड	-11.7337
▁तोके	-11.7338
▁दीपावली	-11.7338
▁ढुवानीमा	-11.734
▁पारि	-11.7344
▁उर्लाबारी	-11.7345
▁भनियो	-11.7345
▁साथीभाइ	-11.7346
▁माविमा	-11.7352
▁कार्यहरु	-11.7354
सभा	-11.7356
▁फ्रि	-11.736
▁ब्यवस्था	-11.7365
▁मिठो	-11.7371
▁बुँदामा	-11.7372
▁बोलेर	-11.7376
▁भिड्दै	-11.7378
▁उरुग्वे	-11.7382
▁बहिस्कार	-11.7382
▁कलकारखाना	-11.7382
▁चन्द्रागिरी	-11.7382
▁धुवाँ	-11.7382
▁मनोवैज्ञानिक	-11.7382
▁ड्युटी	-11.7382
▁रहिआएको	-11.7382
▁अपनाउँदै	-11.7382
▁शायद	-11.7382
▁दावा	-11.7382
▁न्यूनिकरण	-11.7382
▁हत्याकाण्ड	-11.7383
▁हरिकृष्ण	-11.7383
▁गरिनुपर्छ	-11.7383
▁दरबारमार्ग	-11.7383
▁रकमान्तर	-11.7384
९३	-11.7384
▁गुम्ने	-11.7385
▁बनिरहेका	-11.7388
▁वसन्तपुर	-11.7388
क्	-11.7388
▁अनुगमनमा	-11.739
▁ट्रेकिङ	-11.7391
▁२००१	-11.7391
▁गिद्ध	-11.7392
▁चौ	-11.7394
▁थिएटर	-11.7394
▁शा	-11.7394
▁व्यंग्य	-11.7396
▁मागसहित	-11.7396
▁भाग्ने	-11.7396
▁उपत्यकासहित	-11.7397
▁शुक्रबारसम्म	-11.74
▁पुरिएका	-11.7401
▁बहाल	-11.7406
▁नित्य	-11.7414
▁नियुक्ती	-11.7414
खुसी	-11.7414
भरी	-11.7415
नले	-11.7425
▁सुर	-11.7428
▁पिसाब	-11.7443
▁टुर	-11.7443
लिङ	-11.7444
▁भावनात्मक	-11.7447
▁स्कोर	-11.7447
▁२००४	-11.7447
▁जानका	-11.7447
▁आयुर्वेदिक	-11.7449
▁भत्काउन	-11.7451
▁नेपालतर्फ	-11.7452
▁त्यागेर	-11.7453
▁गीतकार	-11.7454
▁सिटमा	-11.7454
▁गुमाइसकेका	-11.7456
▁नगरसभा	-11.746
▁छायाँ	-11.7461
▁आइसकेका	-11.7464
श्री	-11.7464
▁१२१	-11.7465
▁दुर्गाप्रसाद	-11.7465
▁पिछडिएक	-11.7465
▁एकीकरणको	-11.7466
▁कतैबाट	-11.7467
ैपर्छ	-11.7468
▁भएकाे	-11.747
▁मिन	-11.7474
▁आइपिओ	-11.7477
▁रोजेको	-11.7479
▁जिसस	-11.7481
▁सहमतिअनुसार	-11.7482
▁गर्नुहुँदैन	-11.7484
▁सिद्धि	-11.7486
▁घरधनी	-11.7488
▁थला	-11.7488
▁बाढीबाट	-11.7492
▁भर्	-11.7493
▁कामबाट	-11.7496
▁हुन्छु	-11.7498
▁प्रयोगात्मक	-11.7499
▁परिश्रम	-11.75
किशोर	-11.7501
हिजो	-11.7502
क्षेत्र	-11.7502
▁म्याग्दीमा	-11.7502
▁गरेलगत्तै	-11.7503
▁तहहरु	-11.7506
▁थिइन	-11.7506
▁प्रतिवद्ध	-11.7508
▁जगन्नाथ	-11.751
▁आमन्त्रित	-11.751
▁तिलोत्तमा	-11.751
▁हनुमानढोका	-11.751
▁अगष्ट	-11.751
▁मोहमद	-11.751
▁आध्यात्मिक	-11.751
▁बोक्सी	-11.751
▁ल्याउँछ	-11.751
▁फिचर	-11.751
▁सकिँदा	-11.751
▁माथेमा	-11.751
▁खनिज	-11.751
▁घट्दा	-11.751
▁सुदुरपश्चिम	-11.7511
▁उत्साहजनक	-11.7511
▁राख्छन्	-11.7511
▁आदान	-11.7512
▁केन्द्रविन्दु	-11.7512
▁डेमोक्रेटिक	-11.7512
▁फण्ड	-11.7513
▁पुष्पराज	-11.7514
▁माइक्रोफाइनान्स	-11.7514
▁प्यूठान	-11.7514
▁मनोहरा	-11.7515
▁नेताहरूसँग	-11.7515
▁अतः	-11.7517
▁सिरहाका	-11.7519
▁हेम	-11.752
▁कलंकी	-11.7521
▁प्वाइन्ट	-11.7521
▁खोजिरहेका	-11.7521
▁अपांगता	-11.7521
▁प्राइभेट	-11.7524
▁छिर्न	-11.7526
▁हात्तीले	-11.7527
▁मुसा	-11.7529
▁आउला	-11.7536
बारी	-11.7537
निया	-11.7538
▁पुरुषतर्फ	-11.7538
▁ह्याम	-11.7539
▁नपरे	-11.7539
▁अन्तर्गतका	-11.7544
▁क्यालिफोर्निया	-11.755
▁नदिएर	-11.755
▁भेष	-11.7551
▁उपकरणको	-11.7553
▁दोभान	-11.7555
▁डाकिए	-11.7555
विधामा	-11.7555
▁हुनुमा	-11.7558
▁वर्षभरि	-11.7562
र्ट	-11.7563
▁पिक	-11.7563
▁जहाजबाट	-11.7563
▁दिवसीय	-11.7565
▁रोकियो	-11.7567
ठूला	-11.7568
▁घार	-11.757
चर	-11.757
केही	-11.7571
▁एशोसिएसन	-11.7574
▁ओहोरदोहोर	-11.7574
▁स्याङजा	-11.7574
▁आनाकानी	-11.7574
▁राउन्ड	-11.7574
▁अमिताभ	-11.7574
▁सेन्ट्रल	-11.7575
▁वाल	-11.7576
व्यतित	-11.7576
▁पेशागत	-11.7577
▁नबस्ने	-11.7577
▁पठाउँदै	-11.7577
२८	-11.7578
▁१३५	-11.7581
देश	-11.7584
▁तिमीले	-11.7584
▁जुगल	-11.7585
▁पछाडी	-11.7588
सम	-11.7589
▁निषेधित	-11.759
▁छोडेको	-11.7592
▁भइरहे	-11.7594
एम	-11.76
कम	-11.76
▁तारे	-11.76
▁गल्ली	-11.7601
▁देखिएमा	-11.7602
▁नलिएको	-11.7604
▁बेल्ट	-11.7604
िम	-11.7604
▁विद्यालयहरु	-11.7607
▁विपत्	-11.7608
▁चुन	-11.7609
▁माध्यममा	-11.7609
▁कोट	-11.761
▁भाजपा	-11.7614
▁संसदलाई	-11.7614
▁ड्र	-11.7615
▁कांग्रेससँग	-11.7617
्छौं	-11.7619
▁रहेनछ	-11.7622
▁स्थानहरू	-11.7622
▁साथीहरुलाई	-11.7624
▁हिसावले	-11.7625
▁दूत	-11.7625
▁मध्याह्न	-11.7627
▁गुराँस	-11.7629
▁टेबल	-11.7629
▁घृणा	-11.763
▁बंगलादेशसँग	-11.7633
▁अरनिको	-11.7639
▁सीधै	-11.7639
▁घेराबन्दी	-11.7639
▁जमैका	-11.7639
▁लुकाएर	-11.7641
▁खैरो	-11.7641
▁सभागृह	-11.7641
▁बाँकि	-11.7642
▁आपूर्तिमन्त्री	-11.7643
▁१२९	-11.7643
▁आस	-11.7645
▁मुलुकहरू	-11.7647
▁हालत	-11.7647
▁मुद्दती	-11.765
▁सोध्न	-11.7651
्नु	-11.7653
▁भारती	-11.7653
▁बिकास	-11.7654
▁भोकै	-11.7654
▁गुल्म	-11.7656
▁कमर्स	-11.7656
▁मतपत्र	-11.7659
▁मनाइएको	-11.7662
▁नगरेसम्म	-11.7663
▁भालु	-11.7663
▁शिकारी	-11.7666
▁समेटेको	-11.7671
हार	-11.7673
▁भूमी	-11.7688
▁यीमध्ये	-11.7689
▁वक्ता	-11.7691
▁इमेल	-11.7694
▁पुरिएको	-11.7695
▁साताबाट	-11.7703
▁आतङ्क	-11.7704
▁पर्वतारोहण	-11.7704
▁क्यूआर	-11.7705
▁निर्वाध	-11.7705
▁डेभिड	-11.7705
▁पैत्रि	-11.7705
▁उषा	-11.7705
▁बतायो	-11.7705
▁थापामगर	-11.7705
▁भत्काएर	-11.7706
▁बिताएका	-11.7707
▁गजल	-11.7708
▁प्रविधिमैत्री	-11.7708
▁गर्दछौँ	-11.7709
▁भोला	-11.771
▁वर्णन	-11.7712
▁कर्णबहादुर	-11.7713
न्त	-11.7714
▁लागिपरेका	-11.7715
▁हराउने	-11.7717
▁घुँडा	-11.7719
▁पुग्नुपर्ने	-11.7719
▁चाइनिज	-11.7722
▁ग्रन्थ	-11.7722
िटी	-11.7726
▁अमेरिकाबाट	-11.7728
▁आयातित	-11.7729
▁बसाई	-11.7731
▁रमाउने	-11.7732
यर	-11.7735
विज्ञ	-11.7739
▁विमानमा	-11.7744
▁पी	-11.7745
▁लक्ष्यमा	-11.7754
▁जित्दै	-11.7754
▁शनि	-11.7762
▁लिफ्ट	-11.7765
▁सक्थ्यो	-11.777
▁साक्षर	-11.777
▁गोपनियता	-11.777
▁चौरजहारी	-11.777
▁भत्र्सना	-11.777
▁टीट्वान्टी	-11.777
▁हृदयघात	-11.777
▁मिसाइल	-11.777
▁आमन्त्रण	-11.777
▁बाख्रापालन	-11.777
▁चिनजान	-11.777
▁सङ्कल्प	-11.7771
▁सुपथ	-11.7771
▁काउली	-11.7771
▁साइन्स	-11.7772
▁पिएसजी	-11.7773
▁टुंगिए	-11.7774
कुन	-11.7777
▁सहकर्मी	-11.7778
▁उडाउने	-11.778
▁बाँडे	-11.778
▁सोमबारसम्म	-11.7781
▁हालेका	-11.7783
▁गणक	-11.7785
▁फेवाताल	-11.7787
▁विद्यालयबाट	-11.7789
▁तपाइ	-11.779
▁मोटो	-11.7794
▁लिइरहेको	-11.7796
▁ब्लड	-11.7797
हि	-11.78
▁संघर्षमा	-11.78
▁छाया	-11.781
▁होल्ड	-11.7813
▁३२०	-11.7814
नीय	-11.7816
▁अस्पतालहरू	-11.7816
िए	-11.7821
प्रमुख	-11.7822
हान	-11.7824
▁०७२	-11.7825
कालमा	-11.7827
िएका	-11.7828
▁बढाई	-11.7829
▁बुझाउनु	-11.783
▁बोझ	-11.7832
▁भावुक	-11.7832
▁देशसँग	-11.7835
▁दिइ	-11.7835
▁पीपीई	-11.7836
ुपथ्र्यो	-11.7836
▁संसद्बाट	-11.7836
▁कार्यविधिमा	-11.7836
▁प्रोफेसर	-11.7836
▁अन्तक्र्रिया	-11.7836
▁फितलो	-11.7836
▁कराते	-11.7836
▁अल्पकालीन	-11.7837
▁पाउण्ड	-11.7837
▁बुझाउँदै	-11.7837
▁कित्ताकाट	-11.7837
▁लिमी	-11.7838
▁अकाल	-11.7839
▁लागिरहेका	-11.784
▁मठ	-11.784
श्वर	-11.784
▁खुट्टामा	-11.7842
▁मलेसिय	-11.7843
▁जौ	-11.7847
▁टेक्नोलोजी	-11.7848
▁कुलेखानी	-11.7848
▁रक्षक	-11.785
▁बाहिरिएपछि	-11.785
▁शिक्षित	-11.7851
▁परीक्षक	-11.7853
▁उचाले	-11.7854
▁आमसभा	-11.7854
▁लिंक	-11.7855
▁यातायातमा	-11.7857
मल	-11.7858
▁नवरात्र	-11.7859
▁जीवनस्तर	-11.7861
▁रअ	-11.7863
▁एलपी	-11.7864
▁उभिएको	-11.7865
▁अग्ला	-11.7869
▁भित्रका	-11.7873
▁थालिसकेको	-11.7873
▁आईपीओ	-11.7875
ानन्द	-11.7876
▁वर्ण	-11.7877
▁सेफ	-11.7879
▁कर्मचारीका	-11.7879
▁लाग	-11.79
▁बालबालिकाका	-11.7901
▁वरीयता	-11.7902
▁अपार्टमेन्ट	-11.7903
▁गड्डाचौकी	-11.7903
▁बाँस्तोला	-11.7903
▁शकसंवत	-11.7903
▁इमरान	-11.7903
▁बहुआयामिक	-11.7903
▁सिक्का	-11.7903
▁बढावा	-11.7903
िर	-11.7904
▁एरिया	-11.7905
▁हेमराज	-11.7905
▁तिर्नुपर्छ	-11.7905
▁एन्टी	-11.7906
▁खोज्नुपर्ने	-11.7906
▁दया	-11.7907
▁लगाइसके	-11.7908
▁कृष्णचन्द्र	-11.7908
४३	-11.791
▁दलबीच	-11.7911
▁सारेर	-11.7913
७५	-11.7914
▁भएकाहरु	-11.7919
▁फले	-11.792
▁उदार	-11.792
▁काटेको	-11.7923
▁रुसको	-11.7925
▁पत्रकारसँग	-11.7926
▁नेताद्वय	-11.7926
ल्ड	-11.7929
▁मन्दि	-11.7929
▁इन्	-11.7933
▁बस्	-11.7935
▁चाहेर	-11.7938
▁सुते	-11.794
ञ्ज	-11.7943
▁राप्रपाको	-11.7944
▁गर्यौं	-11.7946
▁नराम्र	-11.7947
▁भान	-11.7954
▁गरिसके	-11.796
▁सरे	-11.7961
▁गाउँपालिकाभित्र	-11.7965
▁मृत्युपछि	-11.7965
▁प्रतिवेदनअनुसार	-11.7968
▁यूएई	-11.7969
▁बित्न	-11.797
▁एभरेस्ट	-11.797
▁कार्यन्वयन	-11.797
▁त्रियुगा	-11.797
▁शहिद	-11.797
▁चैनपुर	-11.797
▁यत्रो	-11.797
▁अधिनायकवाद	-11.7971
▁ग्रीन	-11.7971
▁भूकम्पपीडित	-11.7971
▁मि	-11.7972
▁मलेशिया	-11.7972
▁बारेकोट	-11.7973
्छौँ	-11.7974
▁कूटनीति	-11.7977
▁मानिन्छन्	-11.7977
▁प्रभाग	-11.7982
▁समूहबीच	-11.7983
▁गरेअनुसार	-11.7984
▁स्वायत्त	-11.7985
▁खेमा	-11.7986
▁कीर्तिमानी	-11.799
▁दृश्यावलोकन	-11.7996
▁जगाउने	-11.7998
▁छुटेको	-11.8002
पुल	-11.8004
▁अधिकारीसँग	-11.8005
▁उडाउन	-11.8007
▁मोबाइलमा	-11.8007
▁सिन्धुपाल्चोकका	-11.8009
▁सदरमुकाममा	-11.8012
▁संग	-11.8015
▁विराटनगरका	-11.8017
▁गर्नुपर्दा	-11.8018
गृह	-11.802
▁०३	-11.8024
▁तीस	-11.8025
▁अमृता	-11.8026
▁धारामा	-11.8033
▁युरोपका	-11.8035
५१	-11.8035
▁बलको	-11.8036
धि	-11.8036
▁त्रिपाल	-11.8038
▁आविष्कार	-11.8038
▁उदेश्य	-11.8038
▁बैंगलोर	-11.8038
▁महँगी	-11.8038
▁लैनचौर	-11.8038
▁सुदूर	-11.8038
▁सहसंयोजक	-11.8038
▁पोसाक	-11.8038
▁जनवर्ग	-11.8038
▁अप्रिय	-11.8038
▁किराना	-11.804
▁साक्षरता	-11.8041
▁ट्रस्ट	-11.8041
▁व्यहोर्ने	-11.8041
▁आर्यघाट	-11.8041
▁भेटियो	-11.8041
▁दिलबहादुर	-11.8042
▁व्यक्तिबाट	-11.8044
▁दार्जिलिङ	-11.8046
▁२०५६	-11.8047
▁फाले	-11.8051
▁पोखराबाट	-11.8053
स्वास्थ्य	-11.8054
▁मोडालिटी	-11.8058
▁बन्दसत्र	-11.8059
▁गाउँसभा	-11.8059
▁पुजा	-11.8061
▁बोलि	-11.8061
▁निहित	-11.8062
▁दी	-11.8064
▁खोजिरहेको	-11.8067
▁पस्न	-11.8068
▁लगाइसकेका	-11.8069
▁इस्लाम	-11.8069
▁पठाउनु	-11.807
८०	-11.8072
▁प्राज्ञिक	-11.8073
रहनुभएको	-11.8074
▁मोडलमा	-11.8075
▁रविन	-11.8076
▁विल	-11.8076
▁दिनार	-11.8076
▁थेरापी	-11.8076
▁ट	-11.8077
▁१९०	-11.8081
▁२००६	-11.8082
▁रुसमा	-11.8085
▁बाराका	-11.8085
▁साधनहरु	-11.8086
▁गोलबजार	-11.8086
▁अवस्थाबाट	-11.8088
▁सर्वे	-11.8089
▁होड	-11.8089
▁गराउँछ	-11.8089
▁०७३	-11.809
▁साहित्यमा	-11.8091
▁दुखेस	-11.8093
▁मिश्रित	-11.8093
दायी	-11.8098
▁नगदसहित	-11.8099
▁कलह	-11.81
▁औंल्याए	-11.8101
▁परिपक्व	-11.8103
▁नेदरल्यान्ड	-11.8103
▁बहिर्गमन	-11.8104
▁एड	-11.8105
▁मूख्य	-11.8106
▁आँबुखैरेनी	-11.8106
▁किचलो	-11.8106
▁छिनोफानो	-11.8106
▁फाँसी	-11.8106
▁तारकेश्वर	-11.8106
▁सम्पुर्ण	-11.8106
▁धरातल	-11.8106
▁विरुवा	-11.8106
▁खरिदबिक्री	-11.8106
▁वासिन्दा	-11.8106
▁क्युरी	-11.8106
▁सूचीकरण	-11.8107
▁पकड	-11.8107
▁१७५	-11.8109
▁भिन्नता	-11.8112
भाव	-11.8113
▁२००३	-11.8113
▁गा	-11.8113
▁त्यसलगत्तै	-11.8116
▁डाक्टरले	-11.8117
अलि	-11.8118
▁सजगता	-11.8118
▁गर्नेछौँ	-11.812
▁छाउपडी	-11.8121
▁पढेका	-11.8121
▁बढाइरहेको	-11.8123
▁सोच्ने	-11.8124
▁लज	-11.8125
▁कार्यालयहरु	-11.8127
▁प्रतिवेदनमाथि	-11.813
▁क्लास	-11.8132
▁वितरणका	-11.8134
▁एनआरएन	-11.8136
▁ट्रमा	-11.8137
▁डाके	-11.8139
७०	-11.8139
▁चु	-11.8141
▁मोटरसाईकल	-11.8142
▁गोल्छा	-11.8144
▁अठोट	-11.8144
▁थुनिए	-11.8145
▁क्रमिक	-11.8147
▁महामारीसँग	-11.8147
▁हस्ताक्षरसहित	-11.815
▁पदाधिकारीहरू	-11.8156
▁सिरिजमा	-11.8158
▁दैलेखमा	-11.816
▁नानी	-11.816
▁रुष्ट	-11.8167
▁घिउ	-11.8168
▁जन्मेका	-11.8168
▁विकेटको	-11.8169
▁कौशल	-11.8171
▁प्रसाई	-11.8172
▁मनाइँदै	-11.8173
▁बुढानिलकण्ठ	-11.8174
▁जातजाति	-11.8174
▁थकान	-11.8174
▁प्रत्यक्षदर्शी	-11.8174
▁दुइटा	-11.8175
▁रेटिङ	-11.8175
▁एक्सरे	-11.8175
▁अवगत	-11.8176
▁ल्यायो	-11.8176
▁एकातर्फ	-11.8177
त्रिदेशीय	-11.8178
▁बस्यो	-11.8179
▁हिंसामा	-11.8179
▁एथ्लेटिको	-11.818
▁बलिया	-11.8181
▁मनोजकुमार	-11.8183
▁ढुवानीका	-11.8184
▁परिरहेका	-11.8185
▁सत्यता	-11.8186
▁२०४७	-11.8186
▁शान्ता	-11.8187
▁अफगानिस्तानका	-11.8188
▁पोस्टर	-11.8189
▁त्यहीअनुसार	-11.819
▁हकको	-11.819
▁निर्णयपछि	-11.8192
▁धौ	-11.8193
▁हप्तासम्म	-11.8195
▁चिन्न	-11.8195
▁दबाव	-11.8195
▁पाल्पाको	-11.8196
▁पञ्जाब	-11.8197
▁अफिसर	-11.8203
▁गोल्छाले	-11.8205
▁याे	-11.8207
▁बोल्नु	-11.8208
फल	-11.8208
▁भित्रिन	-11.8211
▁सिमेन्टको	-11.8211
ाली	-11.8223
▁१३८	-11.8223
▁विपी	-11.8229
▁सेज	-11.8229
▁रहन्छन्	-11.823
▁बलराम	-11.8234
▁शिर्ष	-11.8239
▁नसकिए	-11.8241
▁बिस्फोट	-11.8241
▁कान्ति	-11.8242
▁वापत	-11.8243
▁क्रिस्टियानो	-11.8243
▁परिभाषित	-11.8243
▁मिलापत्र	-11.8243
▁सिपाही	-11.8243
▁जन्मजयन्ती	-11.8243
▁भीमफेदी	-11.8243
▁चुलो	-11.8244
▁उच्चतम	-11.8244
▁सिरियाली	-11.8244
▁चन्द्रपुर	-11.8247
▁निस्किन	-11.8251
▁नदिएका	-11.8255
▁मीठो	-11.8255
▁योजनामन्त्री	-11.826
▁महिलाहरुको	-11.8261
▁पार्नु	-11.8262
ाधिन	-11.8263
▁हट्न	-11.8264
▁उचाई	-11.8268
लिखित	-11.8272
क्क	-11.8272
ओली	-11.8273
▁निस्के	-11.8275
रोग	-11.8275
▁सामानहरु	-11.8276
▁नर	-11.8277
▁खराबी	-11.8282
▁संकल	-11.8283
▁गन्तव्यको	-11.8287
▁सिन	-11.8287
▁ब्रा	-11.8289
▁किसानका	-11.8291
▁अलिक	-11.8293
▁गराइ	-11.8294
▁शिल	-11.8297
▁आक्रमणको	-11.8301
▁अबदेखि	-11.8304
▁बनाइयो	-11.8304
▁खेद	-11.8305
भित्रका	-11.8306
▁विभिन्	-11.8307
▁अजित	-11.831
▁लोकतन्त्रका	-11.831
▁रौनक	-11.8311
▁हेक्का	-11.8313
▁रणवीर	-11.8313
▁कट्ठा	-11.8313
▁नविकरण	-11.8313
▁ईच्छा	-11.8313
त्	-11.8313
▁बेन	-11.8313
▁टेण्डर	-11.8313
▁अपरेसन	-11.8313
सय	-11.8314
▁रहस्यमय	-11.8315
▁चमत्कार	-11.8315
▁बगेर	-11.8319
▁बन्	-11.8322
▁अनुदानको	-11.8325
▁डेङ्गु	-11.8325
▁नरम	-11.8326
▁हराएर	-11.833
▁उठाइएको	-11.8332
▁पुगिसकेका	-11.8336
▁भत्किए	-11.8337
▁राजपुर	-11.834
▁सच्याए	-11.834
▁बजारसम्म	-11.8343
▁पूर्वएमाले	-11.8344
▁वयस्क	-11.8344
▁संसारको	-11.8345
▁भैरहवामा	-11.8346
▁अफ्रिकामा	-11.8347
▁गढी	-11.8348
▁नमानेको	-11.8357
▁प्रतियोगिताबाट	-11.8358
▁गायन	-11.8362
▁नाफामा	-11.8363
▁पिच	-11.8364
▁अड्किए	-11.8365
▁सञ्चित	-11.8366
▁लायक	-11.8369
▁महिनाभित्रै	-11.8369
▁लिइ	-11.837
▁जनसभा	-11.837
▁गोयल	-11.8372
▁खटिए	-11.8372
▁दैलेखका	-11.8377
▁फैलाउन	-11.8382
▁प्रवन्ध	-11.8383
▁पूर्वमहामन्त्री	-11.8383
▁सुपरिटेन्डेन्ट	-11.8383
▁दिनानुदिन	-11.8383
▁पुनर्विचार	-11.8383
▁भद्रकाली	-11.8383
▁अपलोड	-11.8383
▁हुसेन	-11.8383
▁एयरवेज	-11.8383
▁शिवालय	-11.8383
▁पतन	-11.8383
▁जमात	-11.8385
▁दिंदै	-11.8386
▁प्रतिष्ठामा	-11.8386
▁भङ्ग	-11.8386
▁आआफ्ना	-11.8387
▁चल्नेछ	-11.8389
४६	-11.8391
▁बिष्णु	-11.8391
िश	-11.8393
▁सल	-11.8395
▁निर्माणकार्य	-11.8398
▁प्रभावमा	-11.8399
▁सम्भार	-11.8402
▁बारी	-11.8404
▁स्पेस	-11.8405
▁गर्नेछौं	-11.8405
▁ह्याक	-11.8408
▁थप्छन्	-11.8408
▁कार्यशाला	-11.841
नयाँ	-11.8415
स्थानीय	-11.8417
▁गरेबापत	-11.842
▁नखुलेका	-11.8423
बस	-11.8425
▁संविधानमाथि	-11.8433
▁नदेखिएका	-11.8435
▁कानुनमा	-11.8441
▁रुपैंया	-11.8444
▁थप्दै	-11.8445
▁सडकका	-11.845
▁अनलाईन	-11.8451
▁समयभित्र	-11.8452
▁गोपी	-11.8453
▁दक्षिणपन्थी	-11.8453
▁प्रार्थना	-11.8453
▁एन्टिबडी	-11.8453
▁बूढीगण्डकी	-11.8453
▁सुन्धारा	-11.8453
▁मुसहर	-11.8453
▁ब्वाइज	-11.8453
▁मेट्रो	-11.8453
▁पूजापाठ	-11.8453
▁कलैया	-11.8453
▁२०७८७९	-11.8454
▁चलाइरहेका	-11.8454
िला	-11.8454
▁राष्ट्रियताको	-11.8454
▁बिन	-11.8455
▁व्यापारीहरु	-11.8456
▁विस्थापन	-11.8457
▁स्रष्टा	-11.8457
▁मनन	-11.8458
▁सेप्टेम्बरमा	-11.8458
▁पुरिँद	-11.8459
▁रातमा	-11.8462
जीले	-11.8464
▁पुर्जा	-11.8468
▁पुष	-11.847
लिया	-11.8472
▁हेरेको	-11.8473
▁पाउँदै	-11.8477
▁बुद्धिजीवी	-11.8478
▁उदयपुरमा	-11.848
▁भागबन्डा	-11.8481
▁गुमाउन	-11.8481
▁महाधिवेशनले	-11.8489
▁भोग्न	-11.85
सन्	-11.8502
सुन्दर	-11.8503
▁तोड्न	-11.8509
▁बगेको	-11.851
▁एच	-11.8511
▁पार्टीभित्रै	-11.8513
हिन	-11.8513
▁विस्तारित	-11.8513
▁अस्ति	-11.8514
▁मुना	-11.8516
▁१३७	-11.8518
ाउँछन्	-11.8518
्ता	-11.8518
▁!	-11.852
▁पदार्थमा	-11.852
▁भक्त	-11.8521
▁तालमा	-11.8521
▁सिरियामा	-11.8521
▁नुवाकोटका	-11.8522
▁मौसमविद	-11.8523
▁रोजगारदाताले	-11.8524
▁काष्ठमण्डप	-11.8524
▁जैमिनी	-11.8524
▁दाम्पत्य	-11.8524
▁पुनरागमन	-11.8524
▁बडिगाड	-11.8524
▁पोस्टमार्टम	-11.8524
▁निन्दन	-11.8524
▁ठोरी	-11.8524
नजादा	-11.8524
▁धिमाल	-11.8524
▁ऐक्यबद्धता	-11.8524
▁आँच	-11.8524
▁विधायन	-11.8524
▁बलेवा	-11.8525
▁बस्याल	-11.8525
▁कोरला	-11.8526
▁नरबहादुर	-11.8527
▁क्षेत्रहरु	-11.8528
▁गाईघाट	-11.8528
▁अयोग्य	-11.8529
▁पौराणिक	-11.8529
▁खड्गी	-11.8532
▁निर्वाचनबाट	-11.8532
▁१२६	-11.8532
्यौ	-11.8532
▁सप्लाई	-11.8532
▁ल्होसार	-11.8533
▁कमाएका	-11.8534
▁प्रवास	-11.8534
▁सम्हाल्ने	-11.8534
▁चित्रबहादुर	-11.8535
▁नलागेको	-11.8535
▁सुनिन्छ	-11.8535
▁अनलाइनमार्फत	-11.8536
▁स्याटेलाइट	-11.854
▁सत्याग्रह	-11.8543
▁मनाङका	-11.8545
▁प्रहारबाट	-11.8546
▁राष्	-11.8551
▁न्युयोर्क	-11.8552
▁उत्रिए	-11.8552
▁सर्वेक्षणमा	-11.8553
▁पेनाल्टीमा	-11.8555
अध्यक्ष	-11.8558
▁नचाहेको	-11.8558
▁फेसन	-11.8559
५६	-11.8559
▁उत्रने	-11.8561
▁फैसलामा	-11.8563
स्थलमा	-11.8563
ुहुँदैन	-11.8564
संवैधानिक	-11.8564
▁श्रमिकहरु	-11.8566
▁शुभचिन्तक	-11.8569
लक्ष्मी	-11.857
▁चीनसँगको	-11.8571
▁रोक्नु	-11.8574
कुनै	-11.8575
▁दुईदुई	-11.8576
▁जोडिन	-11.8584
ियर	-11.8585
जर	-11.8587
▁बिरुद्ध	-11.8588
▁विश्वराज	-11.8588
्री	-11.859
म्म	-11.8591
▁गुड	-11.8591
▁पोखेका	-11.8592
▁पुत्र	-11.8594
त्री	-11.8594
▁१२७	-11.8595
▁ससुरा	-11.8595
▁विश्	-11.8595
▁खैरहनी	-11.8595
▁भ्रामक	-11.8595
▁हानिकारक	-11.8595
▁इन्भेस्टमेन्ट	-11.8595
▁सिमसार	-11.8596
▁स्पोर्ट्स	-11.8596
▁खल्ती	-11.8596
▁कार्वाही	-11.8596
▁किलोग्राम	-11.8596
▁न्युनतम	-11.8596
▁चाहन्छौँ	-11.8597
▁मेक्सिकोमा	-11.8598
▁युके	-11.8598
▁बृद्ध	-11.8598
▁जोडदार	-11.8599
▁सूर्यास्त	-11.86
▁सुजिता	-11.8601
जिन	-11.8601
▁प्रकाशचन्द्र	-11.8601
▁धुर	-11.8603
▁गर्छन	-11.8604
▁परशुराम	-11.8604
▁प्लेटफर्म	-11.8619
मग्न	-11.8619
▁वर्षसम्मका	-11.862
▁निभाउन	-11.862
▁नाति	-11.8622
▁हर्ष	-11.8627
▁नलिए	-11.8627
▁प्रश्नहरु	-11.8629
६३	-11.8631
▁राजी	-11.8632
▁उडे	-11.8634
एमसीसी	-11.8636
▁आश्रममा	-11.8637
▁सहभागीता	-11.8638
केन्द्र	-11.8641
▁क्यानाडा	-11.8648
▁सार्वभौमिकता	-11.8651
▁पालिकाको	-11.8654
▁शासनको	-11.8656
▁गर्नेबारे	-11.8659
▁गरिदिएका	-11.8661
▁भिम	-11.8664
▁बुबाको	-11.8665
▁श्रीवास्तव	-11.8667
▁भङ्गाहा	-11.8667
▁हजुरआमा	-11.8667
▁झिनो	-11.8667
▁चाँदनी	-11.8667
▁माली	-11.8668
▁भिल्ला	-11.8668
▁साँवा	-11.8668
▁स्रोतसाधन	-11.8668
▁चिरञ्जीवी	-11.8668
▁बित्यो	-11.8668
▁ढुंगेल	-11.8668
▁बोरिस	-11.8668
▁२०७४७५	-11.8668
▁खजुरा	-11.8668
▁टिन	-11.8668
▁पिलर	-11.867
▁सोचाइ	-11.8671
▁स्वास्थ्यलाभ	-11.8671
▁तिला	-11.8672
▁योजनाअन्तर्गत	-11.8672
▁रामनारायण	-11.8672
▁भेटेको	-11.8672
▁अनुवाद	-11.8674
▁मनाङे	-11.8675
▁गरिरहने	-11.8677
नियन्त्रित	-11.8681
▁उनीहरुसँग	-11.8684
▁रणनीतिमा	-11.8684
न्न	-11.8689
▁त्यसक्रम	-11.8692
्नुपर्ने	-11.8692
▁थालिन्	-11.8693
▁पत्रकारहरुसँग	-11.8694
▁सातापछि	-11.87
▁स्या	-11.8701
▁रहेकै	-11.8703
▁गोमा	-11.8703
▁हिँड	-11.8703
▁विधेयकमाथि	-11.871
▁जनताबाट	-11.8711
▁तिव्र	-11.8712
▁ट्रष्ट	-11.8713
▁समुन्द्र	-11.8714
▁आइतबारसम्म	-11.872
केन्द्रित	-11.8724
बिनै	-11.8726
▁जगमा	-11.8727
▁कानुनअनुसार	-11.8734
▁म्याग्दे	-11.8739
▁सिसडोल	-11.874
▁टमाटर	-11.874
▁कान्छी	-11.874
▁मस्र्याङ्दी	-11.874
▁खाँदबारी	-11.874
▁दशरथचन्द	-11.874
▁खिन्न	-11.874
▁खगराज	-11.874
▁घटनाबाट	-11.874
▁हकहित	-11.874
▁पानीजहाज	-11.8741
▁नराखी	-11.8741
▁चुनिए	-11.8741
▁खम्बा	-11.8742
▁क्रमश	-11.8742
▁न्यायाधीशद्वय	-11.8743
▁हिजोआज	-11.8745
▁समता	-11.8745
▁व्यवस्थापकीय	-11.8746
मानार्थ	-11.8747
▁पढेको	-11.8748
▁पठाइसकेको	-11.875
▁१०६	-11.8751
▁प्यासिफिक	-11.8752
▁जिउ	-11.8753
▁देवराज	-11.8753
▁मिलेन	-11.8753
▁हड्डी	-11.8756
▁बदलिए	-11.8758
▁भुल	-11.8758
▁थेग्न	-11.8759
▁वर्षापछि	-11.8759
▁मिलेनिय	-11.876
▁खेम	-11.876
ुम	-11.8763
▁धर्मराज	-11.8764
रू	-11.8773
▁फर्केपछि	-11.8774
▁खेप	-11.8776
▁जुर्ने	-11.878
▁कार्यक्रममार्फत	-11.8781
▁१२३	-11.8781
▁प्राइम	-11.8781
▁बराबरका	-11.8782
८५	-11.8783
▁हेरी	-11.8783
▁चि	-11.8784
▁बार्सिलोनाका	-11.8785
▁अमानवीय	-11.8789
मंगलवार	-11.8793
▁हि	-11.8794
▁रामजी	-11.8797
▁वर्षायाममा	-11.88
▁पालेका	-11.8803
▁उग्र	-11.8805
▁सुनुवाइका	-11.8806
▁वृद्धिसँगै	-11.8807
▁बर्षमा	-11.8812
▁सबस्टेशन	-11.8812
▁ब्राह्मण	-11.8812
▁शृङ्खला	-11.8813
▁च्याङ्ग्रा	-11.8813
▁नरैनापुर	-11.8813
▁बँदेल	-11.8813
▁लचिलो	-11.8813
▁सिकिस्त	-11.8813
▁एकआपस	-11.8813
▁अनमोल	-11.8813
▁रघुवीर	-11.8813
▁शशि	-11.8814
▁कारोना	-11.8814
▁पूर्वाञ्चल	-11.8814
▁कालखण्ड	-11.8814
▁वेब	-11.8814
▁पन्जाब	-11.8815
्सले	-11.8817
▁गृहजिल्ला	-11.8819
▁मास्टर	-11.8821
▁अनधिकृत	-11.8822
▁दलहरुको	-11.8823
▁टाइगर	-11.8824
▁लिन्छन्	-11.8824
▁माउन्टेन	-11.8824
▁पराल	-11.8824
▁१४५	-11.883
तु	-11.8832
▁उदाहरणीय	-11.8833
▁नेप्सेमा	-11.8834
▁कलर	-11.8836
▁पेज	-11.884
▁तरंग	-11.8841
▁सुविधासम्पन्	-11.8842
६४	-11.8842
▁जिल्लाभित्र	-11.8842
▁७५०	-11.8843
▁कोर	-11.8844
▁चार्टर	-11.8844
▁आयातकर्ता	-11.8845
▁सच्याउने	-11.8847
▁पहिरन	-11.8848
▁१७०	-11.8852
▁अा	-11.8852
▁तपाईँहरु	-11.8855
▁कदमविरुद्ध	-11.8855
▁फुटेको	-11.8858
▁कमेन्ट	-11.886
▁खेलिने	-11.8865
▁वटासम्म	-11.8865
▁ठाँउमा	-11.8865
▁दिइएका	-11.8868
▁अधिकृतको	-11.8868
▁पायक	-11.8871
▁सोचमा	-11.8875
िरहने	-11.8875
▁शम्शेर	-11.8875
▁युवतीले	-11.8875
▁फा	-11.8876
लाख	-11.8879
लाइन	-11.888
▁छोराले	-11.8882
▁दशकअघि	-11.8883
िदै	-11.8885
▁लगिने	-11.8886
▁परमाणु	-11.8886
▁सभाबाट	-11.8886
▁नमोबुद्ध	-11.8886
▁नितान्त	-11.8886
▁कमीकमजोरी	-11.8886
▁प्रदुषण	-11.8886
▁बालबच्चा	-11.8886
▁ह्विप	-11.8887
▁वर्ल्डोमिटर्स	-11.8887
▁जेम्स	-11.8887
▁मेट्रिकटन	-11.8887
▁कार्यक्रमहरू	-11.8889
▁नलगाउने	-11.889
▁हुनुपर्	-11.889
▁ताराखोला	-11.8891
▁बिर्से	-11.8896
▁सत्यनारायण	-11.8897
▁उभिने	-11.8898
▁ब्रिटिस	-11.8899
▁बिक्रीमा	-11.89
उनले	-11.8901
▁छुट्याउन	-11.8903
▁रिपोर्टका	-11.8904
▁पठाइएका	-11.8911
▁बंगलादेशमा	-11.8913
▁संस्करणमा	-11.8916
०८	-11.8918
▁बिताउन	-11.8922
▁विस्फोटक	-11.8923
▁याउँछ	-11.8925
▁उहाँहरूको	-11.8925
यहाँ	-11.8927
▁कठ्ठा	-11.8928
▁यसैक्रम	-11.893
▁नविन	-11.8934
▁केजीमा	-11.8934
▁भेटका	-11.8938
▁नु	-11.894
▁देखाउनु	-11.8941
▁हेर्नु	-11.8942
अगावै	-11.8945
▁भोग	-11.8946
▁फैलिएका	-11.8946
▁पसलहरु	-11.895
३६	-11.8951
▁पुष्ट	-11.8953
०९	-11.8953
▁समितिमार्फत	-11.8955
▁रेलमार्गको	-11.8956
▁युट्युबमा	-11.8958
▁लडेका	-11.8959
▁तामा	-11.896
▁छेउछाउ	-11.896
▁दवाडी	-11.896
▁प्रवीण	-11.896
▁सप्लायर्स	-11.8961
▁रथयात्रा	-11.8961
▁तारिफ	-11.8961
▁विनिमयदर	-11.8961
▁सेवासुविधा	-11.8961
र्ड	-11.8961
▁विसंगति	-11.8961
▁नजिर	-11.8961
माई	-11.8962
▁उद्देश्यसहित	-11.8963
▁मामिलामन्त्री	-11.8964
▁आनन्दमोह	-11.8965
▁अधिवेशनबाट	-11.8967
ताल	-11.897
▁बिचमा	-11.8972
▁लिइसकेका	-11.8972
▁विरोधसभा	-11.8972
▁धर्मनिरपेक्षता	-11.8972
▁नपर्न	-11.8976
▁यत्ति	-11.8977
▁ऐनअनुसार	-11.8981
▁निशाना	-11.8982
▁नाइके	-11.8982
▁एकतापछि	-11.8983
▁सकिएर	-11.899
▁गुरूङ	-11.8991
▁घाइतेमध्ये	-11.8991
▁टेबुल	-11.8993
▁निचोड	-11.8994
▁खु	-11.8995
जान	-11.9
▁मान्नु	-11.9004
६०	-11.9007
▁कपमा	-11.9009
▁कर्जामा	-11.9011
▁धुर्मुस	-11.9016
▁सुविधाका	-11.9017
▁पृथ्वीमा	-11.9021
भारत	-11.9021
▁अन्	-11.9022
▁गरिएन	-11.9024
▁सिकाउन	-11.9024
▁रकेट	-11.9025
▁सुकी	-11.9026
▁जाहेर	-11.9027
▁सपोर्ट	-11.9035
▁ओछ्यान	-11.9035
▁घटबढ	-11.9035
▁घुइँचो	-11.9035
▁पुनर्संरचना	-11.9035
▁गोल्डकप	-11.9035
▁भइनसकेको	-11.9035
▁उठान	-11.9035
▁भोग्दै	-11.9035
▁बित्दा	-11.9036
▁कमलपोखरी	-11.9036
▁प्रतिकार	-11.9036
▁बाजिने	-11.9036
▁रुघा	-11.9037
▁दशमी	-11.9038
▁कमसल	-11.9039
▁धर्नामा	-11.9039
▁रुपैयाँबराबर	-11.904
▁एकाधिकार	-11.9041
▁छुन	-11.9042
▁पर्ख	-11.9046
ाना	-11.9048
▁चा	-11.9052
▁पै	-11.9053
▁तट	-11.9054
▁शङ्का	-11.9054
▁मुनि	-11.9057
▁बाँड्न	-11.9057
्यु	-11.9057
▁जिम	-11.906
▁न्यायाधीशले	-11.9062
▁खाँदै	-11.9062
▁रोप्न	-11.9063
िकरण	-11.9064
▁त्यसैमा	-11.9064
▁संगठनमा	-11.9067
▁पोथी	-11.907
▁ताज	-11.907
मर	-11.907
▁यमन	-11.9071
▁कन्	-11.9071
▁गैँडाको	-11.9073
▁पद्म	-11.9073
चोटि	-11.9074
▁मुड	-11.9075
▁सापकोटाको	-11.9077
▁जनवादी	-11.9078
▁पेरु	-11.9078
▁पन्छाए	-11.908
▁छँदैछ	-11.9084
▁भक्ति	-11.9088
▁मासुको	-11.9089
▁जनताप्रति	-11.9091
▁कमान्ड	-11.9092
▁कोभिडविरुद्ध	-11.9092
▁आयोजनाअन्तर्गत	-11.9094
▁गन्ध	-11.9094
▁नगरको	-11.9098
ेली	-11.9101
▁देख्नु	-11.9107
▁लास	-11.9109
▁ट्रकमा	-11.911
▁सुवर्ण	-11.911
▁एलर्जी	-11.911
▁बाइडन	-11.911
▁सीमास्तम्भ	-11.911
▁रियालिटी	-11.911
▁दीक्षित	-11.911
▁उद्धव	-11.9111
▁शीतलहर	-11.9111
▁चन्दननाथ	-11.9111
▁देउसी	-11.9111
▁भरुवा	-11.9111
▁विचारधारा	-11.9112
▁१३९	-11.9113
▁सिरी	-11.9115
▁सक्दैनौं	-11.9116
▁हर्षित	-11.9116
▁सोहि	-11.9116
▁पछ्याए	-11.9117
▁२०४९	-11.9117
▁गोरखाका	-11.9119
▁भोगेका	-11.912
▁धार्मिकस्थल	-11.9124
▁तबसम्म	-11.9126
▁घण्टापछि	-11.9126
०७	-11.9129
▁छँदा	-11.9133
▁नेतासँग	-11.9135
▁भीर	-11.9135
्यौँ	-11.9139
▁डोल्पाका	-11.9139
▁थाल्न	-11.9139
▁मोही	-11.914
▁किलोलिटर	-11.9141
▁खाल्डो	-11.9147
▁ग्रस्त	-11.915
▁यहाँसम्म	-11.9154
▁औपचारिकता	-11.9155
▁चलाउनु	-11.9156
▁राक्षस	-11.9158
▁१२८	-11.9163
▁निर्णयविरुद्ध	-11.9163
▁याक	-11.9163
▁असारसम्म	-11.9164
हाङ	-11.9164
व्य	-11.9164
▁सुत्नु	-11.9173
स्क	-11.9174
▁महल	-11.9175
▁भएअनुसार	-11.9177
▁शिक्षकहरु	-11.9178
▁सक्दिन	-11.9181
▁ग्राहकहरू	-11.9181
▁पीडितका	-11.9183
▁नशा	-11.9185
▁निर्धक्क	-11.9186
▁फ्लोरिडा	-11.9186
▁भरिभराउ	-11.9186
▁सन्दकपुर	-11.9186
▁स्काउट	-11.9186
▁महासन्धि	-11.9186
▁उपलक्ष्य	-11.9186
▁राष्ट्रपतीय	-11.9186
▁विकराल	-11.9186
▁अफिसियल	-11.9186
▁सेरम	-11.9186
▁विश्वभरी	-11.9188
▁लाग्नुपर्छ	-11.919
िट	-11.919
ल्यान्ड	-11.919
▁यथास्थिति	-11.9195
▁२००५	-11.9196
▁ओमन	-11.9197
एफ	-11.9197
▁अध्यादेशमार्फत	-11.9198
▁७५३	-11.9198
▁सेल्फी	-11.9199
▁सफारी	-11.9201
▁लामखुट्टे	-11.9203
▁गु	-11.9203
▁मनी	-11.9208
▁शुल्कमा	-11.9209
▁डेपुटी	-11.921
▁पाइएन	-11.921
▁याई	-11.9211
▁चर्च	-11.9211
▁इयर	-11.9212
▁युरोपा	-11.9214
▁विप्लवले	-11.9219
▁अत्तरिया	-11.9221
▁१४३	-11.9221
▁चढाए	-11.9226
ुक	-11.9227
▁खट	-11.9229
▁यान	-11.9229
▁बग	-11.9229
र्ने	-11.9231
शुल्क	-11.9236
न्द	-11.9237
सम्बन्धि	-11.9238
▁समर्थकहरु	-11.9241
▁बुधबारसम्म	-11.9244
▁शु	-11.9252
▁एमालेकै	-11.9262
▁उत्प्रेर	-11.9262
▁ठगुन्ना	-11.9262
▁ठम्याइ	-11.9262
▁नरवणे	-11.9262
▁पोलिटब्युरो	-11.9262
▁गल्छी	-11.9262
▁जलजला	-11.9262
▁मिर्चैया	-11.9262
▁सर्कुलर	-11.9262
▁म्यानपावर	-11.9262
▁वेवास्ता	-11.9262
▁पप्पु	-11.9263
▁मृतावस्था	-11.9263
▁वायुमण्डल	-11.9263
▁आकृति	-11.9263
▁गर्दथे	-11.9263
▁सान्दर्भिक	-11.9264
▁कालमा	-11.9266
▁कठिनाई	-11.9266
▁एकाध	-11.9267
▁प्रिन्ट	-11.9269
▁आवश्यक्ता	-11.9269
▁बन्नुपर्छ	-11.927
▁बढाउनुपर्छ	-11.9271
▁कर्मचारीहरुको	-11.9275
▁गिरिजाबाबु	-11.9279
▁बजेटमार्फत	-11.9282
▁आजीवन	-11.9284
▁चाहेमा	-11.9285
▁महामारीविरुद्ध	-11.929
▁चित्रकला	-11.9292
▁अलमलमा	-11.9293
सकभर	-11.9296
▁निशा	-11.9297
▁५५०	-11.9299
▁कम्मर	-11.93
▁भेटिने	-11.9301
▁फागु	-11.9302
▁बंगलादेशका	-11.9302
▁आकाशे	-11.9307
▁नियमावलीमा	-11.9308
▁ओठ	-11.9315
चु	-11.9317
▁होइन्	-11.9318
▁भविष्यको	-11.9323
▁रोगहरु	-11.9324
▁नवनिर्म	-11.9325
त्त	-11.9328
▁सन्यास	-11.9329
पहिले	-11.9331
▁हुनेछैन	-11.9333
▁राष्ट्रले	-11.9336
▁पश्चिमतर्फ	-11.9337
▁ध्येय	-11.9339
▁लाङटाङ	-11.9339
▁विडम्बना	-11.9339
▁बहुविवाह	-11.9339
▁पारवहन	-11.9339
▁गतिरोध	-11.9339
▁गिरिराजमणि	-11.934
▁खिमलाल	-11.934
▁सर्जरी	-11.934
▁बोल्दा	-11.934
▁सभाहल	-11.9341
▁प्रहरीसँग	-11.9342
▁घेराउ	-11.9342
▁आइसकेपछि	-11.9342
▁नखाने	-11.9342
▁वडाअध्यक्ष	-11.9344
चितवन	-11.9344
▁पेटी	-11.9345
▁हान्ने	-11.9346
▁हेरेका	-11.9346
▁जित्दा	-11.9347
▁भरेको	-11.9347
▁नदिइए	-11.9354
▁विशेषतः	-11.936
▁फल्ने	-11.9362
▁भरिएका	-11.9365
▁वादी	-11.9365
▁तरिकाबाट	-11.9367
▁जोगिने	-11.9368
▁बेलायतबाट	-11.9368
▁स्पिनर	-11.9371
काम	-11.9373
वर्ष	-11.9373
▁आहारा	-11.9375
िन्छन्	-11.9375
▁गर्दैछौं	-11.9375
▁क्लबसँग	-11.9376
ास	-11.9378
▁आशामा	-11.938
▁चौतारा	-11.9383
▁मधेसका	-11.9384
▁पर्वतमा	-11.9384
▁जननिर्वाच	-11.9385
नुपर्ने	-11.9392
▁हुनुपर्नेछ	-11.9393
▁बैंकर	-11.9394
▁बिग्रने	-11.9395
▁आन्दोलनकारी	-11.9399
▁चल्दैन	-11.94
▁आतंकवादी	-11.94
▁म्युनिख	-11.9404
▁सीसीएमसी	-11.9405
▁गतिविधिहरु	-11.9406
▁सेनानी	-11.9409
▁फि	-11.9415
▁चेम्जोङ	-11.9417
▁छुवाछूत	-11.9417
▁दायाँबायाँ	-11.9417
▁बाह्रबिसे	-11.9417
▁पाउडर	-11.9417
▁मठमन्दिर	-11.9417
▁उपमहानिर्देशक	-11.9417
▁पश्चिमाञ्चल	-11.9417
▁टापु	-11.9417
▁सशक्तीकरण	-11.9418
▁स्टिकर	-11.9418
▁सक्दिनँ	-11.9418
▁मनाइँदैछ	-11.9419
▁मोलेर	-11.9419
सार	-11.9421
▁जोशीलाई	-11.9421
विकास	-11.9422
▁महशुल	-11.9422
▁सरोकारवालाहरु	-11.9423
▁जमीनमा	-11.9425
हित	-11.9425
▁करुणा	-11.9426
▁अन्यौल	-11.9426
▁झिके	-11.9426
▁सरकारप्रति	-11.9426
▁बाल्ने	-11.9427
▁भोग्नुपरेको	-11.9428
भार	-11.9428
▁प्रान्तीय	-11.9428
▁घोषणापत्रमा	-11.943
▁पैठारी	-11.943
नजिक	-11.943
▁सम्झन	-11.9431
▁किबी	-11.9433
▁बसको	-11.944
▁धन्दा	-11.9449
▁टू	-11.9449
▁मनिषा	-11.945
▁सहकार्यका	-11.9451
▁खटाएको	-11.9452
▁वर्षभित्रै	-11.9452
▁खड्ग	-11.9452
▁मुन	-11.9453
▁फार्मेसी	-11.9456
▁विपद्का	-11.9458
▁संजाल	-11.9459
ेपछि	-11.9459
सकेका	-11.9461
▁भ्याली	-11.9461
▁सर्वोच्चता	-11.9469
ुहुन्थ्यो	-11.947
▁पढाइमा	-11.9472
▁पूर्वतर्फ	-11.9474
▁भ्रष्टाचारी	-11.9475
▁इमानदार	-11.948
▁सयदेखि	-11.9481
ः४५	-11.9482
▁क्लिनिकल	-11.9484
▁वर्गमा	-11.9484
▁सेभिया	-11.9486
५३	-11.9486
▁बसोवास	-11.9487
▁१४१	-11.9489
▁अराजक	-11.9493
▁कालिमाटी	-11.9495
▁शालिग्राम	-11.9495
▁सटही	-11.9495
▁टेम्पो	-11.9495
▁पञ्चेश्वर	-11.9495
धाम	-11.9495
▁धोनी	-11.9496
▁मुलुकबीच	-11.9496
▁गरिदियो	-11.9496
▁छोपेर	-11.9496
▁१४२	-11.9497
▁ठान्ने	-11.9498
▁नलागे	-11.9498
▁बोल्ड	-11.9498
▁मावली	-11.9499
▁संविधानविद्	-11.9499
▁खोलेका	-11.95
▁आठवटा	-11.95
▁फन्ड	-11.9501
▁यसप्रति	-11.9504
▁फैलिँदै	-11.9505
▁मेडल	-11.9507
खुशी	-11.9509
▁कपुर	-11.9509
ान्त	-11.9512
▁डिप्रेसन	-11.9516
▁एमिकस	-11.9517
▁नेत्री	-11.9519
▁दिवा	-11.9522
▁शिक्षाका	-11.9524
▁दुखाइ	-11.9526
▁समुहको	-11.9533
▁संरक्षणको	-11.9537
गर्न	-11.9542
▁आतंककारी	-11.9543
▁डीआईजी	-11.9543
रिएर	-11.9544
▁वाई	-11.9549
▁इरानमा	-11.9552
▁खुलाएको	-11.9555
ष्	-11.956
▁बुट	-11.9561
▁त्यत्ति	-11.9564
्मे	-11.9567
▁उपायहरू	-11.9568
▁कुश	-11.9568
०५	-11.9571
पोखरी	-11.9572
▁दाहिने	-11.9573
▁उज्ज्वल	-11.9574
▁प्रनाउ	-11.9574
▁रूपन्देही	-11.9574
▁नलगाड	-11.9574
▁महङ्गो	-11.9574
▁गलेश्वर	-11.9574
▁पथ्र्यो	-11.9574
▁आप्रवाह	-11.9574
▁सर्वपक्षीय	-11.9574
▁चट्याङ्ग	-11.9574
▁द्रुतमार्ग	-11.9575
▁नर्वे	-11.9575
▁अनेकौँ	-11.9577
▁छाडा	-11.9578
▁संगत	-11.9578
▁ट्र	-11.9579
▁ओलीनिकट	-11.9581
▁झुण्ड	-11.9582
▁खोल	-11.9584
▁डिलर	-11.9587
▁कहरका	-11.9588
उन्मुख	-11.959
िना	-11.9592
▁चुनावका	-11.9594
▁सिक	-11.9598
▁बगरमा	-11.96
▁संवादमा	-11.96
▁मानिससँग	-11.9601
▁भत्काएको	-11.9603
▁बालबालिकाहरु	-11.9606
▁०९	-11.9606
▁किराँत	-11.9607
▁छातीमा	-11.9608
▁टेलिभिजनमा	-11.9608
▁सपनामा	-11.961
▁नेपालभर	-11.9613
▁दिक्क	-11.9619
▁गदै	-11.9619
गाउँमा	-11.9621
▁तल्ला	-11.9623
▁वकिलको	-11.9626
▁नाडा	-11.9626
▁अवरोधका	-11.9629
▁उद्योगहरू	-11.9629
▁अहंकार	-11.9631
▁ब्याजमा	-11.9635
▁छुने	-11.9635
▁तृतीय	-11.964
▁सम्हाले	-11.964
▁गरिँदैछ	-11.9642
स्थ	-11.9645
▁निकटका	-11.9647
▁कोच	-11.9648
▁स्केल	-11.965
▁सक्तैन	-11.9651
▁आत्मसमर्पण	-11.9653
▁भयानक	-11.9653
▁मरासिनी	-11.9653
▁घडेरी	-11.9653
▁डंगोल	-11.9653
▁पौष्टिक	-11.9653
▁मानसरोवर	-11.9653
▁सुजाता	-11.9653
▁कठायत	-11.9653
▁समाहित	-11.9653
▁गथ्र्यो	-11.9653
▁कुपोषण	-11.9653
▁शुक्लपक्ष	-11.9653
▁अनैतिक	-11.9654
▁मज्जा	-11.9654
▁रुपाकोट	-11.9654
▁भरेका	-11.9654
▁खेलमैदान	-11.9654
▁भित्र्याएको	-11.9655
▁ज्योतिष	-11.9655
गढ	-11.9655
▁किंग्स	-11.9655
▁२९९	-11.9655
▁किलोवाट	-11.9655
वासीले	-11.9655
▁पढे	-11.9656
िसकेका	-11.9657
▁हुँदैनथ्यो	-11.9657
▁संस्थासँग	-11.9658
▁सातजना	-11.9659
▁समयभन्दा	-11.9659
▁लगाउनुपर्छ	-11.9661
▁नियति	-11.9661
सले	-11.9661
▁नगरभित्र	-11.9662
▁बिस्कुट	-11.9663
▁गर्ला	-11.9664
▁पुर्खा	-11.967
▁ठोक्किँद	-11.9673
▁सिसा	-11.9673
▁खतरामा	-11.9673
▁बाणिज्य	-11.9674
▁चिनाउन	-11.9676
▁लुके	-11.9677
▁डिफेन्स	-11.9682
▁फर्केको	-11.9682
▁तालिबानी	-11.9682
▁बस्छ	-11.9683
▁प्रक्रियागत	-11.9683
▁महाराज	-11.9684
▁भत्किएका	-11.9685
▁लिङ्ग	-11.9685
शि	-11.9686
▁काभ्रेमा	-11.969
शक्ति	-11.9694
मलाई	-11.9694
▁सुन्तली	-11.9697
्व	-11.9698
▁घुम्ने	-11.9699
▁गरको	-11.9701
▁छिमेकीसँग	-11.9703
▁मस्को	-11.9704
▁अनिश्चितकाल	-11.9711
▁सङ्गठनको	-11.9716
▁देउ	-11.9718
दिँदा	-11.972
▁इज	-11.9721
▁भिजिट	-11.9722
ोस	-11.9725
▁रेणु	-11.9726
▁टुटे	-11.9728
▁कांग्रेसभित्र	-11.9729
▁खाँड	-11.9731
▁शिला	-11.9732
▁जगेर्ना	-11.9733
▁अभिमुखीकरण	-11.9733
▁हलिउड	-11.9733
▁अपराजित	-11.9733
▁सूचकांक	-11.9733
▁नागढुङ्गा	-11.9733
▁टायर	-11.9733
▁बुझिन्छ	-11.9733
▁एमबाप्पे	-11.9733
▁अग्रगामी	-11.9733
▁मौरीपालन	-11.9734
▁गर्नेहरू	-11.9734
▁कार्यव्यवस्था	-11.9734
▁भैलो	-11.9734
▁संघर्षका	-11.9735
▁बताउदै	-11.9735
▁पेपर	-11.9735
▁भरपुर	-11.9736
▁सौरभ	-11.9736
▁२०५४	-11.9737
▁पुयाउन	-11.9739
▁थलिए	-11.9739
▁दिनरात	-11.974
छिन्	-11.9743
▁ल्याउनुपर्छ	-11.9743
▁उत्तरतर्फ	-11.9746
्ज	-11.9747
▁भन्छन	-11.9749
▁उठ्छ	-11.9756
▁जन्मेको	-11.9758
▁नेदरल्याण्ड्स	-11.9758
खेल	-11.9759
▁एआइजी	-11.9759
▁संगठनहरु	-11.976
▁बच्चाहरु	-11.9761
▁आपतकाल	-11.9761
▁२०५१	-11.9762
▁बचाए	-11.9762
▁ममता	-11.9764
▁क्लियर	-11.9765
▁हुनुपरेको	-11.9768
▁सै	-11.9768
▁समानुपातिकतर्फ	-11.9771
▁१३१	-11.9772
▁नेट	-11.9772
▁आर्यन	-11.9775
▁प्रिन्स	-11.9775
▁लिंग	-11.9775
कुल	-11.9781
▁कार्यकर्ताहरू	-11.979
▁शनिबारसम्म	-11.979
▁समस्याबारे	-11.9791
▁मातृ	-11.9796
▁चुनौतीको	-11.9797
▁१५३	-11.9801
▁फस्ट	-11.9804
धान	-11.9807
हिल	-11.9808
▁वृहत	-11.9811
▁हचुवा	-11.9814
▁पूर्वसन्ध्या	-11.9814
▁गौरीशंकर	-11.9814
▁थकाली	-11.9814
▁सोल्टी	-11.9814
▁मोटरेबल	-11.9814
▁सिफ्ट	-11.9814
▁फूलपाती	-11.9814
▁ओम्नी	-11.9814
▁सम्वाद	-11.9814
▁कटारी	-11.9814
▁खरानी	-11.9814
▁दाखिला	-11.9815
▁खाती	-11.9816
▁आमनागरिक	-11.9816
▁गैँडाकोट	-11.9817
▁इलाकामा	-11.9817
▁थालियो	-11.9819
नौ	-11.9819
▁रोकाया	-11.9819
▁राखियो	-11.982
▁टाटा	-11.9821
▁जोगी	-11.9822
▁नसकी	-11.9822
▁मंगलबारदेखि	-11.9823
▁उनीहरुमाथि	-11.9824
▁बदल्ने	-11.9827
▁द्वन्द्वका	-11.983
▁विकासशील	-11.9833
▁पसलबाट	-11.9836
▁दोहो	-11.9837
▁गरिदिएपछि	-11.9838
▁भिड्ने	-11.9841
▁ल्याउनका	-11.9845
▁सुर्खेतबाट	-11.9848
▁बलबहादुर	-11.9849
▁वर्षौं	-11.9854
▁जन्मिए	-11.9855
खेती	-11.9855
संविधान	-11.9857
▁चलचित्रका	-11.9859
▁बाहिरिन	-11.9862
▁गर्नैपर्छ	-11.9862
६८	-11.9866
▁टोलीसँग	-11.9869
अन्तर्गतका	-11.987
थि	-11.9871
म्ब	-11.9874
▁छापिए	-11.9877
▁पद्मा	-11.9879
▁अनियमित	-11.9882
▁पुष्कर	-11.9883
▁पटक्क	-11.9886
▁माउ	-11.9894
▁टेक्सास	-11.9895
▁मुचुल्का	-11.9895
▁फुटपाथ	-11.9895
▁इन्द्रावती	-11.9895
▁न्यायोचित	-11.9895
▁जलाधार	-11.9895
▁हिँड्दा	-11.9895
▁जीवनरक्षा	-11.9896
▁ओपो	-11.9896
▁आमिर	-11.9897
▁टिक्न	-11.9897
▁अक्स	-11.9897
▁अब्दुल्लाह	-11.9897
▁लगाइदिने	-11.9898
▁कुलपति	-11.9899
हाल्ने	-11.99
▁सन्तुष्टि	-11.9903
[...]
